const unsigned char speaker_model_tflite[] = {
0x1c, 0x00, 0x00, 0x00, 0x54, 0x46, 0x4c, 0x33, 0x14, 0x00, 0x20, 0x00, 
0x1c, 0x00, 0x18, 0x00, 0x14, 0x00, 0x10, 0x00, 0x0c, 0x00, 0x00, 0x00, 
0x08, 0x00, 0x04, 0x00, 0x14, 0x00, 0x00, 0x00, 0x1c, 0x00, 0x00, 0x00, 
0x98, 0x00, 0x00, 0x00, 0xf0, 0x00, 0x00, 0x00, 0x74, 0x12, 0x00, 0x00, 
0x84, 0x12, 0x00, 0x00, 0xb4, 0x1d, 0x00, 0x00, 0x03, 0x00, 0x00, 0x00, 
0x01, 0x00, 0x00, 0x00, 0x10, 0x00, 0x00, 0x00, 0x00, 0x00, 0x0a, 0x00, 
0x10, 0x00, 0x0c, 0x00, 0x08, 0x00, 0x04, 0x00, 0x0a, 0x00, 0x00, 0x00, 
0x0c, 0x00, 0x00, 0x00, 0x1c, 0x00, 0x00, 0x00, 0x3c, 0x00, 0x00, 0x00, 
0x0f, 0x00, 0x00, 0x00, 0x73, 0x65, 0x72, 0x76, 0x69, 0x6e, 0x67, 0x5f, 
0x64, 0x65, 0x66, 0x61, 0x75, 0x6c, 0x74, 0x00, 0x01, 0x00, 0x00, 0x00, 
0x04, 0x00, 0x00, 0x00, 0x90, 0xff, 0xff, 0xff, 0x10, 0x00, 0x00, 0x00, 
0x04, 0x00, 0x00, 0x00, 0x08, 0x00, 0x00, 0x00, 0x6f, 0x75, 0x74, 0x70, 
0x75, 0x74, 0x5f, 0x30, 0x00, 0x00, 0x00, 0x00, 0x01, 0x00, 0x00, 0x00, 
0x04, 0x00, 0x00, 0x00, 0x76, 0xed, 0xff, 0xff, 0x04, 0x00, 0x00, 0x00, 
0x0c, 0x00, 0x00, 0x00, 0x6b, 0x65, 0x72, 0x61, 0x73, 0x5f, 0x74, 0x65, 
0x6e, 0x73, 0x6f, 0x72, 0x00, 0x00, 0x00, 0x00, 0x02, 0x00, 0x00, 0x00, 
0x34, 0x00, 0x00, 0x00, 0x04, 0x00, 0x00, 0x00, 0xdc, 0xff, 0xff, 0xff, 
0x13, 0x00, 0x00, 0x00, 0x04, 0x00, 0x00, 0x00, 0x13, 0x00, 0x00, 0x00, 
0x43, 0x4f, 0x4e, 0x56, 0x45, 0x52, 0x53, 0x49, 0x4f, 0x4e, 0x5f, 0x4d, 
0x45, 0x54, 0x41, 0x44, 0x41, 0x54, 0x41, 0x00, 0x08, 0x00, 0x0c, 0x00, 
0x08, 0x00, 0x04, 0x00, 0x08, 0x00, 0x00, 0x00, 0x12, 0x00, 0x00, 0x00, 
0x04, 0x00, 0x00, 0x00, 0x13, 0x00, 0x00, 0x00, 0x6d, 0x69, 0x6e, 0x5f, 
0x72, 0x75, 0x6e, 0x74, 0x69, 0x6d, 0x65, 0x5f, 0x76, 0x65, 0x72, 0x73, 
0x69, 0x6f, 0x6e, 0x00, 0x14, 0x00, 0x00, 0x00, 0x80, 0x11, 0x00, 0x00, 
0x78, 0x11, 0x00, 0x00, 0xe8, 0x10, 0x00, 0x00, 0xc4, 0x10, 0x00, 0x00, 
0xb4, 0x08, 0x00, 0x00, 0x64, 0x06, 0x00, 0x00, 0xd4, 0x03, 0x00, 0x00, 
0xbc, 0x03, 0x00, 0x00, 0x6c, 0x03, 0x00, 0x00, 0x1c, 0x01, 0x00, 0x00, 
0xcc, 0x00, 0x00, 0x00, 0xc4, 0x00, 0x00, 0x00, 0xbc, 0x00, 0x00, 0x00, 
0xb4, 0x00, 0x00, 0x00, 0xac, 0x00, 0x00, 0x00, 0xa4, 0x00, 0x00, 0x00, 
0x9c, 0x00, 0x00, 0x00, 0x94, 0x00, 0x00, 0x00, 0x74, 0x00, 0x00, 0x00, 
0x04, 0x00, 0x00, 0x00, 0x42, 0xee, 0xff, 0xff, 0x04, 0x00, 0x00, 0x00, 
0x60, 0x00, 0x00, 0x00, 0x0c, 0x00, 0x00, 0x00, 0x08, 0x00, 0x0e, 0x00, 
0x08, 0x00, 0x04, 0x00, 0x08, 0x00, 0x00, 0x00, 0x10, 0x00, 0x00, 0x00, 
0x28, 0x00, 0x00, 0x00, 0x00, 0x00, 0x06, 0x00, 0x08, 0x00, 0x04, 0x00, 
0x06, 0x00, 0x00, 0x00, 0x04, 0x00, 0x00, 0x00, 0x01, 0x00, 0x00, 0x00, 
0xea, 0x03, 0x00, 0x00, 0x0c, 0x00, 0x18, 0x00, 0x14, 0x00, 0x10, 0x00, 
0x0c, 0x00, 0x04, 0x00, 0x0c, 0x00, 0x00, 0x00, 0x5c, 0x54, 0x1f, 0x7b, 
0x77, 0x20, 0x47, 0x38, 0x02, 0x00, 0x00, 0x00, 0x02, 0x00, 0x00, 0x00, 
0x04, 0x00, 0x00, 0x00, 0x06, 0x00, 0x00, 0x00, 0x32, 0x2e, 0x32, 0x31, 
0x2e, 0x30, 0x00, 0x00, 0xae, 0xee, 0xff, 0xff, 0x04, 0x00, 0x00, 0x00, 
0x10, 0x00, 0x00, 0x00, 0x31, 0x2e, 0x36, 0x2e, 0x30, 0x00, 0x00, 0x00, 
0x00, 0x00, 0x00, 0x00, 0x00, 0x00, 0x00, 0x00, 0x4c, 0xe4, 0xff, 0xff, 
0x50, 0xe4, 0xff, 0xff, 0x54, 0xe4, 0xff, 0xff, 0x58, 0xe4, 0xff, 0xff, 
0x5c, 0xe4, 0xff, 0xff, 0x60, 0xe4, 0xff, 0xff, 0x64, 0xe4, 0xff, 0xff, 
0xe6, 0xee, 0xff, 0xff, 0x04, 0x00, 0x00, 0x00, 0x40, 0x00, 0x00, 0x00, 
0x6c, 0x4b, 0xb9, 0x3c, 0x1b, 0x60, 0x67, 0xbc, 0xeb, 0x0c, 0xb2, 0x3c, 
0x30, 0x6b, 0xa6, 0xbc, 0x04, 0x9b, 0xab, 0xbc, 0xcb, 0x3e, 0xb9, 0xbc, 
0x6b, 0x99, 0xc2, 0xbc, 0xc1, 0x3a, 0xdb, 0x3c, 0xd0, 0xa2, 0x8f, 0xbc, 
0x02, 0x7b, 0x08, 0x3c, 0xb4, 0x0a, 0xf2, 0x3b, 0xd4, 0xf4, 0x1a, 0x3d, 
0x8b, 0x5f, 0xae, 0x3c, 0xcb, 0x86, 0xec, 0x3c, 0xb5, 0x22, 0x80, 0xbc, 
0x81, 0x7d, 0x8d, 0xbc, 0x32, 0xef, 0xff, 0xff, 0x04, 0x00, 0x00, 0x00, 
0x40, 0x02, 0x00, 0x00, 0xcc, 0x13, 0xbf, 0xbd, 0x22, 0xac, 0x5a, 0xbe, 
0x38, 0x93, 0x10, 0x3e, 0x8b, 0xa6, 0x04, 0x3e, 0x8c, 0x3b, 0x30, 0xbe, 
0xb7, 0xa7, 0x08, 0xbd, 0xba, 0xf2, 0x42, 0x3d, 0xb5, 0xda, 0xee, 0xbd, 
0x94, 0xd9, 0xfa, 0x3c, 0x84, 0x3e, 0x1f, 0xbe, 0xcf, 0x00, 0x38, 0xbe, 
0x0a, 0x25, 0x90, 0x3d, 0x8e, 0xe7, 0x2d, 0x3e, 0x20, 0x9a, 0x33, 0x3d, 
0x62, 0xf9, 0x00, 0x3e, 0xf1, 0x44, 0x23, 0xbe, 0xef, 0x24, 0x72, 0xbd, 
0x41, 0x46, 0x4f, 0xbe, 0xe0, 0xc0, 0x61, 0xb8, 0x23, 0x2e, 0xf7, 0xbd, 
0xe9, 0x69, 0x33, 0xbd, 0x78, 0x55, 0x1f, 0xbe, 0x5a, 0xce, 0x60, 0xbd, 
0xe1, 0x21, 0x30, 0xbe, 0xac, 0xa7, 0x4c, 0xbd, 0x20, 0x74, 0x92, 0x3d, 
0x1b, 0x6b, 0xbb, 0x3d, 0x53, 0x58, 0x1e, 0xbe, 0xd3, 0xa5, 0x2d, 0x3e, 
0x69, 0x96, 0xd7, 0x3d, 0xa9, 0xab, 0x23, 0xbe, 0xfa, 0x75, 0xf8, 0x3d, 
0xf3, 0xd0, 0xbe, 0xbd, 0x09, 0x30, 0x85, 0xbd, 0xd7, 0xe6, 0x1b, 0xbe, 
0xe2, 0x56, 0x25, 0x3e, 0x1d, 0x19, 0xd9, 0xbd, 0x63, 0x37, 0x11, 0xbe, 
0x61, 0x73, 0x5b, 0xbd, 0xa9, 0xe0, 0x31, 0xba, 0x83, 0xd8, 0x21, 0x3e, 
0xe3, 0xe1, 0xbd, 0x3d, 0x72, 0x3c, 0x9f, 0xb9, 0xfa, 0x4d, 0x90, 0xbd, 
0x6b, 0x7b, 0x35, 0xbd, 0x48, 0x6b, 0x00, 0xbe, 0x99, 0xc8, 0xf3, 0xbd, 
0x3e, 0xbf, 0xa6, 0xbd, 0x4c, 0x97, 0xc7, 0x3d, 0xe0, 0x82, 0x0f, 0x3e, 
0xa5, 0xe0, 0x34, 0x3e, 0xd6, 0x92, 0x27, 0xbe, 0x20, 0xf3, 0x12, 0x3e, 
0x2e, 0xd3, 0x8b, 0xbd, 0x4d, 0x6a, 0x11, 0x3d, 0x64, 0x01, 0x19, 0xbd, 
0xb8, 0x49, 0x8e, 0x3c, 0x1f, 0xf7, 0xa2, 0x3d, 0x44, 0xfb, 0x06, 0x3e, 
0x4a, 0xeb, 0xc8, 0xbd, 0x53, 0x0a, 0xe8, 0xbd, 0x02, 0xcb, 0x90, 0xbd, 
0xa9, 0x42, 0x1b, 0x3d, 0x4f, 0x3f, 0xc2, 0x3d, 0xde, 0x67, 0x12, 0x3e, 
0x17, 0x10, 0x1f, 0x3e, 0xfe, 0xe6, 0x1f, 0xbe, 0xe6, 0xeb, 0x7c, 0xbd, 
0x5a, 0x01, 0xdc, 0x3d, 0x60, 0xad, 0x34, 0x3e, 0xfd, 0xca, 0xab, 0x3d, 
0x11, 0xb4, 0x0b, 0xbe, 0x9b, 0xe5, 0x90, 0xbd, 0xf9, 0xeb, 0x1c, 0xbe, 
0xe7, 0x34, 0x31, 0xbe, 0x2d, 0x99, 0xf5, 0xbc, 0x90, 0x4e, 0x02, 0x3e, 
0x6a, 0xed, 0xdf, 0x3d, 0x0f, 0x3c, 0xae, 0xbd, 0x02, 0xda, 0x00, 0x3d, 
0x33, 0xff, 0x4e, 0xbe, 0x3c, 0x13, 0xac, 0x3d, 0xbd, 0x05, 0x16, 0x3d, 
0x8f, 0xcc, 0x26, 0xbe, 0xca, 0xd0, 0x23, 0x3e, 0xf3, 0x3d, 0x22, 0xbe, 
0x4a, 0x13, 0x0a, 0xbe, 0x4e, 0xbd, 0x8b, 0x3d, 0x4a, 0x77, 0x1f, 0x3e, 
0xb8, 0x5e, 0x13, 0x3e, 0x90, 0x17, 0x06, 0xbe, 0x55, 0x6b, 0x1c, 0x3e, 
0x9e, 0xd6, 0x1a, 0x3d, 0xb5, 0x2e, 0x18, 0x3e, 0xf5, 0x62, 0xba, 0xbd, 
0x98, 0x82, 0x02, 0x3c, 0xe1, 0x18, 0x0b, 0xbe, 0xee, 0x9f, 0x1e, 0xbe, 
0x4e, 0x78, 0xa3, 0x3b, 0xc9, 0x33, 0xd5, 0xbc, 0xb5, 0x62, 0xc9, 0x3d, 
0xbe, 0xe9, 0xdb, 0xbd, 0x1b, 0x27, 0x91, 0x3d, 0x4f, 0xe6, 0x59, 0xbe, 
0x24, 0x3c, 0x71, 0xbd, 0x9e, 0x85, 0xbf, 0x3d, 0x82, 0x62, 0xf1, 0xbd, 
0x8d, 0x9d, 0xd0, 0x3d, 0xe0, 0x87, 0x57, 0x3e, 0x39, 0xb7, 0x1a, 0x3e, 
0xcb, 0x35, 0x83, 0x3d, 0xee, 0xb8, 0x2e, 0x3e, 0x19, 0xf9, 0x1b, 0xbe, 
0x9b, 0x0d, 0x92, 0x3d, 0xdf, 0x5c, 0x22, 0xbe, 0xbf, 0xe7, 0x2e, 0x3e, 
0x87, 0x89, 0xcd, 0xbd, 0xf5, 0x24, 0x32, 0x3e, 0x58, 0xe5, 0x3f, 0xbd, 
0x95, 0x9d, 0x10, 0x3e, 0xb3, 0xab, 0x8d, 0xbd, 0x52, 0x03, 0x00, 0xbd, 
0xb8, 0x92, 0x08, 0xbd, 0xe0, 0xdc, 0xaa, 0x3d, 0x88, 0xe8, 0xb5, 0x3d, 
0x09, 0xd0, 0x4d, 0x3e, 0xe2, 0xea, 0x51, 0x3d, 0x04, 0xa2, 0x6a, 0xbd, 
0xba, 0x07, 0x10, 0x3b, 0xc9, 0x88, 0x89, 0xbd, 0x70, 0x7d, 0xe5, 0xbd, 
0xf5, 0xdd, 0xb8, 0xbd, 0xd9, 0x25, 0xe4, 0xbd, 0x15, 0x91, 0xae, 0xbd, 
0xa9, 0xc5, 0xf4, 0xbc, 0x63, 0x68, 0xa1, 0x3d, 0xbe, 0xfe, 0x58, 0x3d, 
0xdc, 0x3a, 0x15, 0xbd, 0x41, 0x59, 0x15, 0x3e, 0xef, 0xa9, 0x46, 0x3e, 
0xa7, 0xe7, 0x1e, 0x3e, 0x7f, 0xaf, 0x90, 0x3d, 0x9c, 0xec, 0x33, 0xbd, 
0xb0, 0xf4, 0xeb, 0x3d, 0x7e, 0xf1, 0xff, 0xff, 0x04, 0x00, 0x00, 0x00, 
0x40, 0x00, 0x00, 0x00, 0x00, 0x00, 0x00, 0x00, 0x00, 0x00, 0x00, 0x00, 
0x00, 0x00, 0x00, 0x00, 0x00, 0x00, 0x00, 0x00, 0x00, 0x00, 0x00, 0x00, 
0x00, 0x00, 0x00, 0x00, 0x00, 0x00, 0x00, 0x00, 0x00, 0x00, 0x00, 0x00, 
0x00, 0x00, 0x00, 0x00, 0x00, 0x00, 0x00, 0x00, 0x00, 0x00, 0x00, 0x00, 
0x00, 0x00, 0x00, 0x00, 0x00, 0x00, 0x00, 0x00, 0x00, 0x00, 0x00, 0x00, 
0x00, 0x00, 0x00, 0x00, 0x00, 0x00, 0x00, 0x00, 0xca, 0xf1, 0xff, 0xff, 
0x04, 0x00, 0x00, 0x00, 0x08, 0x00, 0x00, 0x00, 0x01, 0x00, 0x00, 0x00, 
0x02, 0x00, 0x00, 0x00, 0xde, 0xf1, 0xff, 0xff, 0x04, 0x00, 0x00, 0x00, 
0x80, 0x02, 0x00, 0x00, 0x9f, 0xa0, 0xad, 0x3e, 0x74, 0xad, 0x4d, 0x3e, 
0xd5, 0x72, 0xc8, 0xbe, 0x0d, 0x0c, 0x0c, 0xbe, 0xa1, 0xbf, 0xd7, 0xbd, 
0xb7, 0x75, 0xae, 0xbe, 0x61, 0x4d, 0xb0, 0x3c, 0x08, 0xa7, 0x90, 0xbe, 
0x74, 0xe5, 0x89, 0xbd, 0x66, 0x33, 0xbc, 0x3d, 0xe9, 0xeb, 0x42, 0x3e, 
0x9e, 0xe1, 0x87, 0xbe, 0xdc, 0x8d, 0x7e, 0x3e, 0x5b, 0xfd, 0x8e, 0x3e, 
0x80, 0x16, 0xce, 0x3e, 0x32, 0xc5, 0xb0, 0x3d, 0x9c, 0x7a, 0x73, 0x3e, 
0x78, 0x49, 0x38, 0xbe, 0x11, 0xb4, 0x9b, 0x3e, 0x3b, 0x89, 0xb1, 0xbe, 
0x07, 0x74, 0x81, 0x3d, 0xa4, 0x4d, 0xcb, 0x3e, 0x3a, 0x9f, 0xaf, 0x3e, 
0xd5, 0x43, 0x77, 0x3e, 0x22, 0x82, 0x87, 0xbe, 0xfd, 0xc7, 0x14, 0x3e, 
0xb0, 0x63, 0xbb, 0xbe, 0x8c, 0x85, 0x32, 0x3e, 0x3a, 0xf0, 0x91, 0x3e, 
0x4b, 0xd3, 0x3a, 0x3e, 0x56, 0x3a, 0x0f, 0x3e, 0xa5, 0x61, 0xcd, 0x3d, 
0xfe, 0x5b, 0xa7, 0x3e, 0xf5, 0xd5, 0xb2, 0x3d, 0x9e, 0xe0, 0x5d, 0xbe, 
0x55, 0xc7, 0x28, 0x3d, 0x19, 0x9f, 0x53, 0x3e, 0xfa, 0x77, 0x05, 0x3e, 
0x0c, 0x08, 0x9f, 0x3e, 0x29, 0xbb, 0x83, 0xbe, 0x2e, 0x75, 0x11, 0xbe, 
0xbd, 0x60, 0x97, 0x3e, 0xc3, 0xe7, 0xaa, 0xbb, 0x3b, 0xf8, 0x5e, 0xbe, 
0x4d, 0x6d, 0x19, 0x3e, 0xad, 0xbf, 0x6c, 0x3e, 0x04, 0x6b, 0x8f, 0xbe, 
0xc6, 0xf9, 0xe7, 0xba, 0x66, 0x45, 0xb0, 0x3e, 0xa9, 0x5b, 0xc4, 0x3e, 
0x2c, 0xbb, 0x36, 0xbe, 0x9a, 0xec, 0xed, 0xbc, 0x09, 0x1f, 0x40, 0x3e, 
0xbe, 0xf5, 0x89, 0xbe, 0xc8, 0xdd, 0xbc, 0xbe, 0xaa, 0x05, 0xb1, 0x3e, 
0xe7, 0x8c, 0x34, 0x3e, 0xa1, 0xb5, 0x4e, 0xbe, 0xd2, 0x92, 0x75, 0xbe, 
0xc4, 0xcc, 0x5f, 0xbe, 0x85, 0xa8, 0x1c, 0x3e, 0x1b, 0x45, 0x4d, 0xbe, 
0x7a, 0x75, 0x73, 0x3e, 0x34, 0xb9, 0xc7, 0x3e, 0x43, 0xb6, 0x97, 0x3d, 
0xf8, 0xa2, 0xc2, 0x3e, 0x49, 0x2e, 0x55, 0x3e, 0x2f, 0x33, 0x90, 0x3e, 
0x2c, 0xe2, 0x15, 0xbd, 0x5e, 0x5a, 0xc6, 0x3e, 0x4a, 0x9e, 0xd4, 0x3e, 
0xc9, 0x98, 0x70, 0xbd, 0xc2, 0x51, 0xa5, 0x3e, 0x3e, 0x91, 0xb6, 0x3a, 
0x64, 0xad, 0xfa, 0xbd, 0x4a, 0xdc, 0xfe, 0xbd, 0x49, 0xfc, 0x94, 0xbd, 
0xcc, 0xa6, 0x07, 0x3e, 0x86, 0xe8, 0xec, 0x3d, 0xb8, 0xbf, 0x29, 0xbe, 
0xcf, 0x5a, 0x39, 0xbe, 0x6a, 0x7f, 0xb8, 0x3e, 0x9a, 0x61, 0x84, 0xbe, 
0x6c, 0x53, 0x96, 0x3e, 0x3c, 0xa6, 0xc6, 0xb9, 0x65, 0xd4, 0xaa, 0xbe, 
0x6c, 0xec, 0x8d, 0xbe, 0xaf, 0x20, 0x5f, 0xbe, 0x1a, 0x91, 0xb4, 0xbe, 
0x6f, 0x35, 0xb8, 0xbe, 0x73, 0xc0, 0x46, 0x3d, 0xe1, 0xc9, 0x85, 0x3e, 
0xed, 0x7f, 0xe8, 0xbd, 0xfa, 0xbf, 0xc2, 0x3e, 0x69, 0xaf, 0x49, 0xbc, 
0xa2, 0x48, 0x53, 0xbe, 0x8d, 0x5a, 0x42, 0x3e, 0x6a, 0x76, 0x9a, 0xbc, 
0x3f, 0x8d, 0x93, 0x3d, 0x29, 0x0f, 0xc1, 0x3e, 0x2b, 0x72, 0x47, 0xbd, 
0x30, 0x0f, 0xbe, 0x3e, 0xeb, 0x7d, 0x49, 0xbe, 0x92, 0xac, 0x43, 0x3e, 
0x3f, 0x8f, 0xaa, 0xbe, 0x4f, 0xd6, 0x91, 0xbd, 0xa6, 0xf3, 0x05, 0x3c, 
0x10, 0x31, 0x98, 0x3e, 0x5f, 0x29, 0xa5, 0xbe, 0x52, 0xc3, 0xb7, 0xbe, 
0xfa, 0x89, 0x2c, 0x3e, 0xcd, 0x10, 0x9a, 0xbe, 0x63, 0x98, 0x24, 0x3e, 
0x4f, 0x4b, 0x96, 0xbe, 0x13, 0x38, 0xaf, 0xbe, 0x9d, 0x63, 0x8c, 0x3d, 
0xce, 0x59, 0xbd, 0xbd, 0xf4, 0x44, 0x9f, 0xbd, 0x94, 0xe7, 0xc0, 0xbd, 
0xf6, 0xbb, 0xad, 0x3e, 0x6b, 0x97, 0x94, 0x3e, 0x50, 0xf9, 0x2a, 0x3e, 
0xdf, 0x21, 0xae, 0xbe, 0x9d, 0x6c, 0xce, 0x3e, 0x35, 0x4e, 0x29, 0xbe, 
0xbd, 0x31, 0xfd, 0x3d, 0x61, 0xf2, 0xbb, 0x3e, 0xa7, 0x35, 0x7e, 0xbe, 
0xd1, 0x98, 0xc7, 0xbe, 0xeb, 0x7f, 0xc2, 0x3e, 0xd9, 0xe2, 0x85, 0xbe, 
0x9e, 0x58, 0x5e, 0xbe, 0xc1, 0xdf, 0xfd, 0xbc, 0x24, 0x26, 0x81, 0x3e, 
0x6d, 0x6a, 0x60, 0xbe, 0xbe, 0xf7, 0x5e, 0x3e, 0x80, 0x3c, 0x33, 0xbe, 
0x35, 0xb8, 0xc5, 0xbe, 0x16, 0x67, 0xb8, 0x3e, 0x78, 0x12, 0x40, 0x3d, 
0x8e, 0x4f, 0xd7, 0x3c, 0x77, 0x20, 0x94, 0x3d, 0x88, 0x18, 0x04, 0x3e, 
0x5a, 0x7a, 0x1d, 0x3e, 0xe8, 0x2f, 0xcc, 0xbe, 0xf8, 0x08, 0x76, 0xbe, 
0x09, 0x29, 0xa5, 0xbe, 0xff, 0x4e, 0xe3, 0xba, 0x04, 0x41, 0xe9, 0xbc, 
0xdf, 0x9e, 0x7e, 0xbd, 0xb6, 0x28, 0x81, 0xbe, 0x85, 0xa3, 0x4c, 0x3e, 
0x07, 0x93, 0xad, 0x3d, 0x3e, 0x4c, 0x92, 0xbd, 0xc8, 0x94, 0x48, 0xbd, 
0xe1, 0x53, 0x10, 0xbd, 0xc9, 0x68, 0x3f, 0x3e, 0xe9, 0xac, 0xf6, 0x3d, 
0xcc, 0xc2, 0x05, 0x3d, 0x4a, 0xb5, 0x9b, 0x3e, 0x6a, 0xf4, 0xff, 0xff, 
0x04, 0x00, 0x00, 0x00, 0x40, 0x02, 0x00, 0x00, 0x48, 0x11, 0x09, 0x3d, 
0xb8, 0x5a, 0x15, 0xbe, 0x23, 0x3f, 0x10, 0x3e, 0xef, 0x11, 0xb7, 0xbd, 
0xab, 0x97, 0xc9, 0xbd, 0x2b, 0x2c, 0x7a, 0x3d, 0x17, 0x7b, 0x0b, 0xbe, 
0x9e, 0x71, 0x25, 0x3e, 0xf4, 0xf0, 0x46, 0xbd, 0x74, 0x40, 0x56, 0xbe, 
0x3b, 0xd3, 0xe0, 0xbd, 0xa4, 0x19, 0x88, 0x3c, 0x55, 0xbe, 0x0e, 0x3d, 
0x07, 0xbd, 0x1c, 0x3e, 0xff, 0x06, 0x2a, 0xbd, 0xc7, 0xeb, 0x28, 0x3e, 
0x5d, 0x6b, 0x0c, 0x3e, 0xe4, 0xe3, 0x5b, 0x3d, 0x3c, 0xf3, 0x5b, 0xbd, 
0x6f, 0x31, 0x56, 0xbd, 0x28, 0xd2, 0x25, 0xbc, 0x9b, 0xfa, 0x5d, 0xbe, 
0xed, 0x92, 0xf0, 0x3d, 0x5c, 0xf9, 0x3d, 0xbd, 0xe3, 0xa6, 0x1b, 0xbe, 
0x70, 0x2e, 0x58, 0xbd, 0xf7, 0x15, 0x68, 0x3d, 0x39, 0x2c, 0xa7, 0x3d, 
0x05, 0xc5, 0x72, 0xbc, 0x43, 0x98, 0xe3, 0xbd, 0xef, 0xda, 0xf3, 0xbd, 
0x69, 0xc3, 0xe3, 0x3d, 0x5b, 0x5c, 0xa5, 0xbc, 0x6e, 0x3a, 0xd4, 0xbd, 
0xcf, 0x8f, 0x9a, 0xbd, 0x86, 0x9d, 0x57, 0x3e, 0xf9, 0x74, 0x0d, 0x3d, 
0xe0, 0xf1, 0x1c, 0xbe, 0x01, 0x22, 0x02, 0x3d, 0x32, 0xe6, 0x3c, 0xbc, 
0x43, 0x8f, 0xd7, 0xbb, 0x13, 0x43, 0x2d, 0x3e, 0xf4, 0xe2, 0x10, 0xbe, 
0xb5, 0x30, 0x25, 0xbe, 0x6a, 0xe0, 0x97, 0x3c, 0x47, 0x74, 0x43, 0x3d, 
0x26, 0xc3, 0x75, 0xbd, 0x04, 0x9f, 0xb8, 0x3d, 0xc5, 0xc1, 0x3d, 0xbe, 
0x89, 0xf7, 0x96, 0xbb, 0x8f, 0x57, 0x3d, 0xbe, 0x0b, 0x8b, 0x1f, 0xbe, 
0x10, 0x00, 0x7f, 0xbd, 0x6e, 0x46, 0x21, 0x3e, 0x25, 0x75, 0x26, 0xbd, 
0xac, 0xd8, 0xab, 0x3d, 0xa2, 0x0f, 0x04, 0xbc, 0x6c, 0xee, 0xf4, 0xbd, 
0x47, 0x20, 0x6c, 0xbd, 0x09, 0xe5, 0x64, 0x3d, 0x36, 0x99, 0xf3, 0x3d, 
0x79, 0x29, 0x1d, 0xbe, 0xcd, 0x57, 0xf5, 0x3d, 0x2b, 0x2a, 0x61, 0x3d, 
0x49, 0xa9, 0x17, 0xbe, 0x02, 0xfb, 0xad, 0xbd, 0xba, 0x12, 0x3a, 0xbb, 
0x3e, 0x6c, 0x1b, 0xbd, 0x16, 0x81, 0x13, 0x3d, 0xb2, 0x0b, 0x0e, 0x3e, 
0xad, 0x6b, 0x60, 0xbe, 0xce, 0x70, 0x13, 0x3e, 0xd2, 0xcf, 0x56, 0x3c, 
0x8e, 0x24, 0xcf, 0xba, 0x0d, 0xd5, 0x12, 0x3c, 0x0d, 0x47, 0x18, 0x3e, 
0x09, 0x43, 0x26, 0xbe, 0x10, 0x46, 0x58, 0xbe, 0x7b, 0x63, 0x4a, 0x3e, 
0x68, 0x0e, 0xd8, 0x3c, 0xd4, 0x6f, 0x03, 0xbe, 0x40, 0x2e, 0x65, 0xbd, 
0xd1, 0xe8, 0xaf, 0xbc, 0x26, 0x4a, 0x0c, 0x3e, 0x3a, 0xea, 0x01, 0xbe, 
0x86, 0x3d, 0xa2, 0x3d, 0x18, 0x2d, 0xe6, 0xba, 0x82, 0x1f, 0x1c, 0x3e, 
0x10, 0xc6, 0x6d, 0x3d, 0x3a, 0xf2, 0x0f, 0xbe, 0xc9, 0xc7, 0x8b, 0xba, 
0x00, 0xc7, 0xc7, 0xbd, 0xb7, 0x3e, 0x24, 0x3e, 0xf5, 0x7e, 0x37, 0xbd, 
0x04, 0x11, 0x2a, 0xbe, 0x20, 0xbf, 0xa1, 0xbc, 0xf9, 0x99, 0xdb, 0xbd, 
0x55, 0x90, 0x3f, 0x3d, 0x7f, 0xea, 0x53, 0xbd, 0x3f, 0xf4, 0xc0, 0xbd, 
0xaa, 0x4d, 0x1f, 0x3d, 0x54, 0xe7, 0x08, 0x3e, 0xa3, 0x75, 0x11, 0x3d, 
0x53, 0x7b, 0x15, 0x3c, 0x41, 0x15, 0x05, 0x3d, 0x27, 0xe9, 0x15, 0xbd, 
0xe3, 0x64, 0xc2, 0x3d, 0xe4, 0xaf, 0x9e, 0x3d, 0x75, 0x8b, 0xe5, 0x3d, 
0x2a, 0xda, 0xa9, 0xbd, 0xe1, 0x07, 0x19, 0xbd, 0xce, 0x39, 0x28, 0xbe, 
0x9f, 0xf8, 0xfb, 0x3d, 0xcb, 0xab, 0xec, 0xbc, 0x7c, 0x52, 0xaa, 0x3c, 
0xe9, 0xf0, 0xb5, 0x3c, 0x9e, 0x9b, 0xe6, 0x3d, 0x10, 0xa7, 0x02, 0xbd, 
0xec, 0x98, 0x0b, 0x3e, 0x49, 0x68, 0xaa, 0x3d, 0x9b, 0x76, 0xbc, 0x3d, 
0x6a, 0x03, 0xfb, 0x3d, 0x06, 0x9d, 0xa3, 0xbd, 0xcd, 0xa0, 0x46, 0x3e, 
0x51, 0xff, 0x12, 0x3e, 0x54, 0x28, 0x85, 0xbd, 0xdb, 0x52, 0x2f, 0xbe, 
0x5a, 0x84, 0x2c, 0xbe, 0xf9, 0x30, 0x95, 0xbd, 0xf4, 0x34, 0x0a, 0xbd, 
0xcb, 0x85, 0xc4, 0x3d, 0x9a, 0x15, 0x92, 0xbd, 0x13, 0xb6, 0x3a, 0x3e, 
0x19, 0x8b, 0xe7, 0xbd, 0x65, 0xb0, 0xd1, 0x3d, 0x68, 0x98, 0x5e, 0x3e, 
0x94, 0x86, 0x09, 0x3e, 0xaf, 0x64, 0x2d, 0xbe, 0x5b, 0xec, 0x3e, 0xbe, 
0xeb, 0x60, 0xa8, 0xbc, 0x95, 0x86, 0xcb, 0x3d, 0x10, 0x34, 0x42, 0xbd, 
0x38, 0x9a, 0x4f, 0xbd, 0xa7, 0x19, 0x0b, 0xbe, 0xb6, 0xf6, 0xff, 0xff, 
0x04, 0x00, 0x00, 0x00, 0x00, 0x08, 0x00, 0x00, 0x22, 0x8c, 0x9d, 0x3e, 
0x92, 0x2c, 0x1a, 0x3e, 0x27, 0xd4, 0xae, 0x3e, 0x00, 0xa2, 0x97, 0x3d, 
0xb5, 0x6d, 0x0d, 0x3e, 0x38, 0x87, 0x9f, 0xbe, 0x99, 0x7b, 0x84, 0xbe, 
0xd9, 0x19, 0xb9, 0x3e, 0x7f, 0x4a, 0xb2, 0x3d, 0xed, 0xad, 0xdc, 0xbc, 
0xe6, 0x28, 0x0a, 0x3e, 0xa1, 0xd2, 0x50, 0x3e, 0x79, 0x48, 0xbb, 0x3e, 
0x4f, 0x41, 0x72, 0x3d, 0xed, 0xc1, 0x3a, 0x3c, 0xe3, 0xc4, 0x37, 0x3c, 
0x90, 0x90, 0x4a, 0xbc, 0xd9, 0x1d, 0x7b, 0x3e, 0x77, 0xea, 0xe3, 0x3d, 
0xec, 0x74, 0x2b, 0xbe, 0x7d, 0x6b, 0x3e, 0x3e, 0x6d, 0x2c, 0x29, 0x3e, 
0xfd, 0x66, 0x12, 0x3c, 0x67, 0x71, 0x60, 0xbe, 0xc1, 0xcd, 0x8b, 0xbe, 
0xa0, 0xe8, 0x85, 0xbe, 0xef, 0xda, 0x7e, 0x3e, 0x08, 0x0f, 0xd4, 0x3d, 
0xe9, 0x06, 0x5f, 0xbe, 0x0c, 0xa4, 0x65, 0x3e, 0xcc, 0xfa, 0x18, 0xbe, 
0xc9, 0x91, 0x99, 0xbb, 0x7e, 0xfe, 0xa9, 0xbe, 0x3c, 0x28, 0x8a, 0x3e, 
0xc6, 0x1e, 0x90, 0x3d, 0xc4, 0xe6, 0x1c, 0xbe, 0xcd, 0xa1, 0x53, 0x3e, 
0x65, 0x08, 0x2b, 0x3e, 0xf2, 0x7a, 0xe1, 0x3d, 0x09, 0xbb, 0x44, 0x3e, 
0x30, 0xe0, 0x65, 0xbe, 0xa8, 0xce, 0xbb, 0xbd, 0xc9, 0x50, 0x7e, 0xbb, 
0x1c, 0x31, 0x9c, 0x3e, 0x4e, 0xf9, 0x85, 0xbe, 0x3f, 0x7d, 0x09, 0x3e, 
0xad, 0x8a, 0x93, 0x3e, 0x32, 0x22, 0x24, 0x3e, 0xb3, 0xa7, 0x48, 0xbb, 
0xe2, 0x28, 0x0e, 0x3e, 0xab, 0x4e, 0x5f, 0xbe, 0x3c, 0xf9, 0xa6, 0x3d, 
0x56, 0x84, 0x6b, 0xbd, 0x97, 0xcb, 0x59, 0xbe, 0x91, 0x1b, 0x45, 0xbd, 
0xef, 0x54, 0x04, 0x3e, 0x53, 0x9f, 0x4c, 0xbe, 0x52, 0x8a, 0x75, 0xbe, 
0xb7, 0xfa, 0x53, 0x3e, 0xf6, 0xfa, 0x33, 0x3e, 0x3b, 0x94, 0xa4, 0x3e, 
0xd0, 0x6d, 0x9f, 0xbe, 0xff, 0xe9, 0x10, 0xbc, 0xbb, 0x16, 0x35, 0xbe, 
0xac, 0x53, 0x9a, 0x3d, 0xaa, 0x66, 0xd1, 0xbc, 0x05, 0x84, 0x89, 0xbd, 
0x4d, 0xab, 0x18, 0x3d, 0xcf, 0x9b, 0x77, 0xbe, 0x29, 0xe7, 0xb4, 0x3e, 
0x0b, 0x97, 0x84, 0x3e, 0x62, 0x7f, 0x82, 0x3e, 0xcf, 0x78, 0xa5, 0xbd, 
0xdb, 0xdf, 0xc2, 0x3e, 0xbb, 0x0e, 0xeb, 0x3d, 0x52, 0x9e, 0xa7, 0x3e, 
0xe0, 0x67, 0xdf, 0x3d, 0x0d, 0xcf, 0x3a, 0x3d, 0xa9, 0xd8, 0x8f, 0x3e, 
0xc6, 0xff, 0x81, 0xbe, 0x27, 0xca, 0xaf, 0x3d, 0xe4, 0xfb, 0x40, 0xbe, 
0xff, 0xb1, 0x93, 0xbe, 0xee, 0x02, 0xc9, 0x3c, 0x70, 0xa7, 0x89, 0x3e, 
0xbc, 0xd4, 0x6b, 0xbe, 0x73, 0xf8, 0xa8, 0x3e, 0x43, 0x2b, 0xe8, 0xbd, 
0x9c, 0x5c, 0x0f, 0xbd, 0xa5, 0x52, 0x1d, 0x3d, 0x60, 0x9b, 0x2e, 0x3e, 
0xea, 0x86, 0x90, 0xbc, 0xbb, 0xba, 0xb3, 0xbd, 0x3c, 0x00, 0x48, 0xbe, 
0x34, 0x18, 0x99, 0x3e, 0xe6, 0x70, 0xac, 0x3e, 0x34, 0x0d, 0x46, 0x3d, 
0x41, 0x68, 0xed, 0xbd, 0x8b, 0x2f, 0xea, 0x3d, 0x37, 0x4d, 0x3d, 0x3e, 
0x1d, 0x7f, 0xaa, 0x3e, 0xc3, 0x53, 0x8a, 0xbe, 0x5e, 0x05, 0x3a, 0x3e, 
0x50, 0x37, 0xa8, 0x3e, 0xec, 0x1a, 0x20, 0xbe, 0xb5, 0x1b, 0xeb, 0x3d, 
0x7e, 0x75, 0x9c, 0x3e, 0x21, 0x4f, 0xbe, 0x3d, 0xd6, 0xd7, 0x59, 0xbe, 
0x6e, 0x33, 0x9d, 0x3e, 0xf1, 0x75, 0x6b, 0x3e, 0xa8, 0xc7, 0x3d, 0x3e, 
0xf9, 0x3b, 0x2f, 0xbd, 0x09, 0x71, 0x21, 0xbe, 0x60, 0xb3, 0x14, 0xbc, 
0x53, 0x90, 0x9b, 0xbe, 0x52, 0xea, 0xa7, 0x3e, 0x40, 0xfb, 0x68, 0x3e, 
0x2d, 0x40, 0x82, 0xbd, 0xff, 0x6c, 0xad, 0xbe, 0xad, 0x91, 0xa4, 0xbe, 
0x12, 0x90, 0x92, 0xbe, 0x5a, 0xf5, 0x0f, 0xbe, 0xe2, 0xf2, 0x82, 0x3e, 
0xbc, 0xc4, 0xf4, 0xbd, 0x52, 0x1a, 0xad, 0x3e, 0x36, 0xbe, 0x42, 0xbe, 
0x62, 0x49, 0xea, 0xbd, 0x9a, 0xda, 0xa6, 0xbe, 0x1b, 0x2c, 0x78, 0xbe, 
0xdd, 0x6c, 0xe7, 0xbd, 0xad, 0x01, 0x8b, 0xbd, 0xf6, 0x26, 0x6d, 0x3e, 
0xb4, 0xf6, 0x1c, 0x3e, 0x33, 0xf8, 0x7c, 0x3e, 0x53, 0xbe, 0x72, 0x3e, 
0x68, 0x49, 0x9e, 0xbd, 0xb4, 0x95, 0x82, 0x3e, 0xc1, 0x4e, 0x84, 0xbe, 
0xf0, 0x3f, 0x57, 0x3d, 0x17, 0xd0, 0x98, 0xbe, 0x64, 0xdf, 0x44, 0xbe, 
0xff, 0x1a, 0xac, 0x3e, 0xd2, 0x98, 0x53, 0xbe, 0xed, 0x9d, 0xd8, 0x3d, 
0x28, 0x68, 0xb2, 0xbe, 0x43, 0xc3, 0x5f, 0xbc, 0x4e, 0x09, 0x57, 0xbe, 
0xb5, 0x7d, 0x48, 0xbd, 0xb0, 0x92, 0xc8, 0xbb, 0xd9, 0x4e, 0x7d, 0xbe, 
0xfd, 0x1c, 0x96, 0xbc, 0x36, 0x47, 0x8a, 0x3e, 0xef, 0x7d, 0x59, 0xbd, 
0x67, 0x43, 0x18, 0xbe, 0xb9, 0x5d, 0x35, 0x3e, 0xda, 0x68, 0x96, 0x3e, 
0xa1, 0x4c, 0x31, 0x3e, 0xe9, 0x51, 0x7b, 0xbd, 0xdd, 0xf1, 0x35, 0x3e, 
0x70, 0xb3, 0x9f, 0x3e, 0x0d, 0x84, 0xab, 0xbd, 0x7e, 0x06, 0x83, 0x3e, 
0x2e, 0x07, 0x76, 0xbe, 0xfb, 0x45, 0x10, 0x3d, 0x94, 0x18, 0x86, 0x3e, 
0xbd, 0xd0, 0x3a, 0xbd, 0x19, 0x5e, 0x96, 0xbd, 0x8e, 0x2b, 0x3e, 0xbb, 
0xa9, 0xc7, 0x96, 0x3d, 0x2b, 0x70, 0x24, 0x3d, 0xf6, 0x76, 0x40, 0x3e, 
0x6f, 0x20, 0x7c, 0xbe, 0xca, 0x32, 0x34, 0x3e, 0x3d, 0x92, 0xa1, 0xbe, 
0x75, 0x1c, 0x9d, 0x3e, 0xb6, 0xab, 0x76, 0xbe, 0x27, 0x12, 0x93, 0x3e, 
0x34, 0x95, 0x9d, 0x3e, 0x25, 0xaf, 0x62, 0x3e, 0x65, 0x69, 0xa3, 0x3e, 
0x7d, 0x0c, 0x95, 0xbe, 0x06, 0x57, 0x27, 0x3e, 0x59, 0xac, 0x27, 0x3e, 
0xd5, 0xfc, 0x03, 0x3e, 0x4a, 0x0e, 0x8f, 0x3e, 0x81, 0x6b, 0x83, 0x3e, 
0xc4, 0xc1, 0x65, 0xbd, 0x52, 0x16, 0x90, 0xbe, 0x7e, 0x7e, 0x93, 0x3e, 
0x54, 0x6d, 0x98, 0xbe, 0x12, 0xd3, 0x0c, 0xbe, 0x8c, 0x0e, 0x16, 0xbd, 
0x58, 0x14, 0xf3, 0xbd, 0x71, 0xf8, 0x0e, 0xbe, 0x6f, 0xa7, 0x94, 0x3e, 
0x60, 0xcc, 0xd2, 0x3c, 0x39, 0x24, 0x89, 0x3d, 0xbc, 0x40, 0x65, 0x3e, 
0x41, 0xec, 0x92, 0xbd, 0x7e, 0xd2, 0x9a, 0xbe, 0x4c, 0xec, 0x48, 0xbd, 
0xb9, 0xcb, 0x48, 0xbe, 0x09, 0x95, 0x64, 0xbe, 0x7f, 0x48, 0x0c, 0x3c, 
0xfb, 0x3b, 0x89, 0x3e, 0x1e, 0x0a, 0x8c, 0xbd, 0xe4, 0x37, 0x5d, 0xbd, 
0xf2, 0xf7, 0xb0, 0x3e, 0xa1, 0xf1, 0x1b, 0x3e, 0xac, 0x5e, 0x21, 0xbe, 
0xa6, 0xae, 0xd6, 0x3d, 0xf2, 0x3c, 0x93, 0x3e, 0x03, 0x50, 0x9e, 0xbe, 
0x3b, 0xfd, 0x9b, 0xbe, 0xb7, 0x95, 0x8b, 0x3e, 0xb9, 0x3a, 0x58, 0xbe, 
0xa8, 0x4d, 0x67, 0x3d, 0xc3, 0x93, 0x88, 0xbe, 0x1a, 0xc4, 0xc4, 0x3d, 
0x14, 0x4a, 0x85, 0xbd, 0x91, 0xb6, 0x62, 0xbe, 0x5c, 0x24, 0x68, 0xbe, 
0x5c, 0x26, 0x7a, 0x3e, 0xc3, 0xec, 0x85, 0x3e, 0x45, 0x05, 0x90, 0x3d, 
0xe2, 0x67, 0x9b, 0xbe, 0x33, 0x98, 0x70, 0x3e, 0x49, 0xac, 0x19, 0xbe, 
0x53, 0x10, 0x3f, 0x3e, 0xfb, 0x53, 0x22, 0xbe, 0x02, 0x5b, 0x9a, 0x3e, 
0x81, 0xe4, 0x56, 0xbd, 0x7c, 0x8d, 0x27, 0xbb, 0x50, 0xce, 0x97, 0xbe, 
0xe5, 0x00, 0xf6, 0xb9, 0x6d, 0x98, 0x9e, 0xbd, 0x57, 0x0c, 0x76, 0xbe, 
0x9d, 0xcb, 0xcd, 0x3d, 0x84, 0xe6, 0x04, 0xbc, 0x63, 0x03, 0x02, 0xbe, 
0x83, 0x76, 0xe3, 0xbc, 0x4d, 0x56, 0x72, 0xbe, 0x8e, 0xbc, 0x48, 0xbe, 
0x20, 0x8c, 0xcd, 0x3b, 0x2f, 0xcc, 0x80, 0x3e, 0xd7, 0x7d, 0x79, 0x3e, 
0x20, 0xe3, 0x81, 0x3e, 0xb4, 0x31, 0x71, 0x3e, 0xf2, 0xe1, 0x02, 0x3e, 
0x84, 0xd1, 0xca, 0x3d, 0x70, 0x6a, 0x2e, 0xbd, 0xfe, 0x5b, 0x57, 0x3e, 
0x40, 0x14, 0x19, 0x3d, 0x90, 0x03, 0x15, 0x3e, 0x27, 0xab, 0x89, 0x3e, 
0xc5, 0xb8, 0xdc, 0x3c, 0xb0, 0x36, 0x00, 0x3e, 0x35, 0xae, 0x44, 0xbe, 
0xa2, 0x55, 0xea, 0xbd, 0x0e, 0xbf, 0x18, 0xbe, 0x38, 0xab, 0xb2, 0x3d, 
0xb7, 0x96, 0x44, 0xbd, 0x6b, 0x14, 0xf3, 0xbd, 0xe5, 0x55, 0x80, 0x3c, 
0xb0, 0x2d, 0xae, 0xbc, 0x89, 0xd9, 0xb9, 0x3d, 0xb7, 0x93, 0x05, 0x3e, 
0xba, 0xdf, 0x2c, 0xbe, 0x13, 0x01, 0x9c, 0xbe, 0xa6, 0xc8, 0x93, 0xbd, 
0x57, 0x52, 0xdc, 0x3c, 0x65, 0x90, 0xd5, 0xbc, 0x6f, 0xa2, 0x35, 0x3e, 
0x58, 0x27, 0xa9, 0xbe, 0x91, 0xd5, 0x82, 0x3e, 0xca, 0x94, 0x46, 0xbe, 
0xca, 0x7b, 0xaa, 0xbe, 0xed, 0xf5, 0x6b, 0x3e, 0xff, 0xf3, 0xa3, 0xbe, 
0x4c, 0xfa, 0x2a, 0xbe, 0x7e, 0xde, 0x86, 0x3c, 0x60, 0x2f, 0x82, 0x3e, 
0xf0, 0xe2, 0xb2, 0x3e, 0x4b, 0x45, 0xee, 0xbd, 0x48, 0x97, 0x82, 0xbe, 
0xde, 0xfb, 0x91, 0x3e, 0x64, 0xa1, 0x7f, 0xbd, 0x1c, 0x2a, 0x69, 0x3d, 
0xca, 0x89, 0x83, 0x3e, 0xb1, 0x7b, 0x5b, 0x3e, 0xf6, 0x80, 0x8f, 0x3e, 
0x02, 0x4c, 0x90, 0x3e, 0xfe, 0xfb, 0xaf, 0xbe, 0xef, 0x5b, 0x28, 0x3d, 
0x28, 0x2e, 0x0c, 0x3d, 0x22, 0xe4, 0x87, 0xbe, 0x7b, 0x31, 0x1d, 0xbe, 
0xe3, 0x6a, 0xf4, 0xbd, 0x9e, 0xa9, 0x1d, 0x3e, 0x00, 0x06, 0xe5, 0xbd, 
0x59, 0xd4, 0x65, 0xbe, 0x2f, 0x48, 0x81, 0xbe, 0x00, 0xae, 0xb1, 0x3e, 
0x49, 0x8f, 0x92, 0x3e, 0x21, 0x4e, 0x80, 0x3e, 0x34, 0x71, 0xad, 0xbe, 
0x6b, 0x14, 0x84, 0x3e, 0xc8, 0xb8, 0x68, 0xbd, 0x15, 0x65, 0x88, 0xbe, 
0x00, 0x27, 0x22, 0x3d, 0xc4, 0x9a, 0xdd, 0x3b, 0x0f, 0x06, 0x00, 0xbe, 
0x02, 0xa4, 0x33, 0x3e, 0x28, 0x3a, 0x98, 0xbe, 0xa9, 0x20, 0x82, 0xbd, 
0x1a, 0x62, 0xc2, 0xbd, 0xb5, 0xa3, 0x5e, 0x3e, 0x8e, 0xec, 0x08, 0x3d, 
0xe1, 0xcc, 0x76, 0x3d, 0xd0, 0x83, 0x70, 0xbc, 0x45, 0xad, 0x60, 0xbe, 
0x5b, 0x1f, 0xa1, 0xbe, 0x7f, 0x36, 0x65, 0xbd, 0x61, 0xf1, 0xaa, 0xbe, 
0x0f, 0x12, 0x0b, 0xbd, 0x4e, 0xdf, 0x8b, 0x3d, 0x6b, 0x99, 0x21, 0x3e, 
0x96, 0x6e, 0xdc, 0xbd, 0x3c, 0x3d, 0x8f, 0x3e, 0x8f, 0x87, 0xd5, 0x3c, 
0xb5, 0x29, 0xde, 0xbd, 0x53, 0xbd, 0x94, 0xbe, 0x54, 0x08, 0x9e, 0x3e, 
0x2a, 0xe9, 0x99, 0x3e, 0x1a, 0xa5, 0x15, 0xbd, 0x4c, 0x77, 0x2c, 0xbc, 
0x6c, 0x1a, 0xc8, 0x3d, 0x3a, 0x83, 0x4b, 0x3e, 0xc2, 0xca, 0xa9, 0x3d, 
0xe2, 0xa5, 0x2f, 0x3e, 0xb6, 0x0f, 0x19, 0x3e, 0x21, 0x6d, 0x0b, 0xbe, 
0xb6, 0x8a, 0x88, 0x3e, 0xba, 0x0f, 0xc8, 0xbd, 0xba, 0x85, 0x87, 0xbe, 
0xa6, 0xee, 0x5a, 0xbe, 0x38, 0x8e, 0xb9, 0xbe, 0x74, 0x76, 0xac, 0xbe, 
0x33, 0xf5, 0x5d, 0xbe, 0x55, 0x61, 0x6b, 0x3d, 0xd6, 0x71, 0x6c, 0xbe, 
0xda, 0x7c, 0x9a, 0x3e, 0x18, 0x2f, 0x9f, 0xbe, 0xd5, 0xd7, 0x74, 0xbe, 
0x7c, 0xe5, 0x36, 0x3d, 0x0e, 0x77, 0x9c, 0xbe, 0xfd, 0x67, 0x2c, 0xbc, 
0xbe, 0x46, 0x65, 0xbe, 0x91, 0xcc, 0x3e, 0xbe, 0xc4, 0x25, 0x7a, 0x3e, 
0x87, 0xbe, 0xb4, 0xbe, 0xcc, 0x7f, 0x8d, 0x3e, 0x2e, 0xdc, 0xe6, 0xbc, 
0x63, 0x92, 0x73, 0x3e, 0x7c, 0x77, 0xcb, 0xbd, 0xb5, 0xba, 0x02, 0xbd, 
0x4a, 0x29, 0x6f, 0xbe, 0x8f, 0xfe, 0x80, 0x3d, 0x4f, 0xee, 0x9d, 0xbe, 
0x0e, 0x67, 0x92, 0xbe, 0x89, 0x4c, 0x32, 0x3e, 0x99, 0x04, 0xe6, 0xbd, 
0x51, 0x46, 0xe8, 0x3d, 0x45, 0x5e, 0xf9, 0xbc, 0x76, 0x0a, 0x3c, 0x3e, 
0xd8, 0xaa, 0x8c, 0x3e, 0x24, 0xca, 0xa0, 0x3e, 0x7c, 0xbf, 0xa5, 0x3e, 
0x9b, 0x74, 0xc3, 0xbe, 0x4f, 0x26, 0xb8, 0x3d, 0xfb, 0x30, 0x79, 0xbe, 
0x4b, 0x8f, 0x6b, 0xbe, 0xb8, 0xad, 0x8f, 0x3e, 0x4a, 0x8c, 0x97, 0xbe, 
0x9e, 0x75, 0xdd, 0x3c, 0x52, 0x9e, 0xd5, 0x3b, 0x38, 0xa4, 0xaa, 0x3d, 
0x3c, 0x7a, 0xb4, 0x3d, 0xa1, 0x70, 0x6a, 0x3d, 0xb3, 0x0a, 0xbd, 0xbe, 
0x3f, 0xdd, 0x89, 0x3c, 0x74, 0xe8, 0x6a, 0xbe, 0x79, 0x29, 0x59, 0x3e, 
0xe6, 0x65, 0x19, 0x3e, 0xb3, 0x3e, 0x0a, 0x3e, 0x36, 0xea, 0xbf, 0xbe, 
0xb2, 0x5c, 0x62, 0x3d, 0x0f, 0xc4, 0x89, 0x3e, 0xce, 0x3a, 0x88, 0xbe, 
0x26, 0x12, 0xa4, 0x3e, 0x42, 0xfa, 0x38, 0x3d, 0x4b, 0xef, 0x41, 0xbe, 
0xc8, 0xd8, 0x50, 0xbe, 0x8c, 0x91, 0x26, 0x3d, 0xec, 0x5c, 0x5d, 0x3e, 
0x2e, 0xd3, 0x71, 0xbe, 0x6e, 0xf6, 0x23, 0xbd, 0x51, 0x9a, 0x0b, 0x3e, 
0x91, 0x81, 0x28, 0xbe, 0x3e, 0xf2, 0xb9, 0xbd, 0xf5, 0x89, 0xf7, 0x3d, 
0xc0, 0xed, 0x99, 0x3e, 0xef, 0x50, 0x00, 0xbe, 0x19, 0xf9, 0x46, 0x3e, 
0x6f, 0xcf, 0x17, 0xbe, 0x41, 0xf5, 0xda, 0xbd, 0x2f, 0x2d, 0x84, 0xbd, 
0x43, 0xe2, 0x85, 0x3d, 0x7f, 0x4d, 0x98, 0xbe, 0x43, 0x0c, 0xa3, 0x3d, 
0x67, 0x11, 0x78, 0x3e, 0xf3, 0xce, 0x17, 0xbe, 0x38, 0x5e, 0x45, 0xbd, 
0x83, 0xcc, 0x3b, 0xbe, 0x48, 0x34, 0xa3, 0xbd, 0x99, 0x0e, 0xa2, 0x3e, 
0xbc, 0x11, 0xa9, 0xbe, 0x99, 0xd7, 0x70, 0xbe, 0x50, 0xdf, 0x14, 0x3e, 
0x4a, 0x4c, 0xc2, 0x3d, 0x7a, 0x3b, 0xfb, 0x3d, 0xfa, 0xd9, 0x1e, 0xbe, 
0xdf, 0xa8, 0x4f, 0x3e, 0x26, 0xe4, 0x57, 0x3e, 0xe2, 0x42, 0xfc, 0x3d, 
0xca, 0x0b, 0xb6, 0x3e, 0x64, 0x35, 0x8f, 0x3e, 0x07, 0xe3, 0x21, 0xbe, 
0x87, 0x2a, 0x30, 0xbe, 0xf3, 0xaf, 0x98, 0xbe, 0x5b, 0xae, 0x30, 0xbe, 
0x22, 0x33, 0x89, 0xbe, 0x04, 0x51, 0x85, 0x3e, 0x1a, 0xf9, 0xbe, 0x3e, 
0x03, 0x47, 0xaf, 0xbe, 0x0a, 0xb5, 0x98, 0x3e, 0x00, 0xa1, 0x95, 0x3d, 
0x5a, 0x7c, 0x45, 0x3e, 0xbc, 0x6b, 0x85, 0x3d, 0x1d, 0xd2, 0x0b, 0x3d, 
0x8e, 0xc3, 0xa7, 0xbe, 0x8a, 0xad, 0x62, 0x3e, 0x94, 0x44, 0x88, 0x3e, 
0x42, 0x71, 0x87, 0x3e, 0x0e, 0xfb, 0xc1, 0xbd, 0x63, 0xf8, 0x8c, 0xbe, 
0xce, 0x1f, 0xe1, 0xbd, 0x99, 0xbe, 0x9d, 0x3e, 0x56, 0x3b, 0xeb, 0x3d, 
0x63, 0x9a, 0x74, 0x3e, 0x2e, 0x39, 0xfb, 0xbd, 0xfb, 0xcc, 0x56, 0x3d, 
0x21, 0x62, 0x42, 0xbe, 0x80, 0x14, 0xab, 0x3c, 0xb0, 0xdf, 0x9f, 0x3e, 
0x25, 0x94, 0x61, 0x3e, 0xce, 0xdf, 0x86, 0x3e, 0xcd, 0x17, 0xdf, 0x3d, 
0x5d, 0x73, 0x45, 0xbe, 0xda, 0x9b, 0x2d, 0xbe, 0x3a, 0xd7, 0x2f, 0x3e, 
0xa8, 0x61, 0x0c, 0xbe, 0x78, 0x80, 0x87, 0x3e, 0xed, 0xdc, 0xc1, 0xbd, 
0xde, 0xa7, 0xe8, 0x3d, 0xcd, 0x93, 0x95, 0x3e, 0x85, 0x39, 0x4b, 0xbd, 
0x2f, 0x68, 0x13, 0x3e, 0xa2, 0x98, 0x62, 0x3d, 0xd5, 0x80, 0x8a, 0xbe, 
0x3d, 0xf6, 0x3a, 0xbe, 0xf1, 0x23, 0xb7, 0xbe, 0x51, 0xb4, 0x54, 0xbe, 
0x3f, 0xc8, 0x2b, 0x3e, 0xdd, 0x6f, 0xb8, 0x3c, 0x88, 0x7d, 0x5c, 0x3e, 
0xbb, 0x8b, 0x22, 0x3e, 0x3a, 0xe6, 0x99, 0xbd, 0x08, 0x39, 0x11, 0x3b, 
0x34, 0x77, 0x86, 0xbe, 0x8c, 0xb6, 0x3e, 0x3e, 0x86, 0x9c, 0x0c, 0xbd, 
0x4a, 0x74, 0x66, 0xbe, 0xda, 0x87, 0xa6, 0xbe, 0xab, 0x5f, 0x16, 0x3e, 
0xe8, 0xfc, 0xb4, 0xbd, 0xaa, 0xa6, 0xfe, 0x3d, 0xc2, 0x02, 0xa9, 0xbd, 
0xd3, 0x37, 0xe5, 0x3d, 0xc2, 0x1e, 0xeb, 0xbd, 0x9f, 0x20, 0x0e, 0xbe, 
0x55, 0x35, 0x39, 0xbe, 0xf7, 0xda, 0xff, 0xbd, 0x07, 0x8f, 0xc9, 0x3e, 
0x40, 0xf7, 0x85, 0x3e, 0x29, 0x58, 0x01, 0x3c, 0xb6, 0x9d, 0x4a, 0xbe, 
0xa5, 0x8c, 0xcf, 0x3d, 0xb8, 0xd9, 0x9f, 0xbe, 0x51, 0x96, 0x5a, 0xbe, 
0x32, 0x12, 0x9f, 0x3e, 0xc2, 0xfe, 0xff, 0xff, 0x04, 0x00, 0x00, 0x00, 
0x14, 0x00, 0x00, 0x00, 0x3b, 0x87, 0x45, 0x3c, 0xb3, 0x5e, 0xf4, 0x3c, 
0x8a, 0xc7, 0x16, 0x3c, 0x29, 0xbd, 0xfd, 0x3c, 0xef, 0x49, 0xb6, 0xbc, 
0xe2, 0xfe, 0xff, 0xff, 0x04, 0x00, 0x00, 0x00, 0x80, 0x00, 0x00, 0x00, 
0x85, 0x27, 0xcf, 0x3c, 0x8a, 0xd1, 0xcc, 0xbc, 0x8c, 0xe8, 0xc3, 0x3c, 
0x7f, 0x72, 0xaa, 0x3c, 0xf8, 0xeb, 0x14, 0xbb, 0x62, 0x13, 0xe2, 0xbc, 
0xe5, 0x02, 0x94, 0x3c, 0xbf, 0xcc, 0x83, 0xbc, 0xb7, 0xfd, 0x19, 0xba, 
0x8e, 0x45, 0xc3, 0x3c, 0x65, 0x54, 0xb6, 0xbc, 0xd7, 0x2e, 0xd5, 0xbb, 
0x6d, 0xbd, 0xe0, 0xbc, 0x45, 0x78, 0x0f, 0xbc, 0xc4, 0x7a, 0x8e, 0xbc, 
0xd1, 0x75, 0xbd, 0xbc, 0xc4, 0x79, 0xce, 0x3c, 0xf0, 0xe8, 0x23, 0x3c, 
0x13, 0x08, 0xc4, 0x3c, 0xbf, 0xc5, 0xad, 0xbc, 0xed, 0xf3, 0xed, 0x3c, 
0xaf, 0xb9, 0x31, 0xbc, 0x30, 0x92, 0x9a, 0x3c, 0x36, 0xc5, 0xf7, 0xbb, 
0xd2, 0x0b, 0x5f, 0x3c, 0x86, 0x46, 0xfe, 0xbb, 0x5a, 0x12, 0xa5, 0xbc, 
0x8f, 0x03, 0x6c, 0x3c, 0x75, 0x31, 0xb3, 0xbc, 0x7e, 0xd4, 0xb4, 0xbc, 
0x71, 0x6e, 0x07, 0x3d, 0x5f, 0x27, 0xdb, 0xbb, 0xf0, 0xf4, 0xff, 0xff, 
0xf4, 0xf4, 0xff, 0xff, 0x0f, 0x00, 0x00, 0x00, 0x4d, 0x4c, 0x49, 0x52, 
0x20, 0x43, 0x6f, 0x6e, 0x76, 0x65, 0x72, 0x74, 0x65, 0x64, 0x2e, 0x00, 
0x01, 0x00, 0x00, 0x00, 0x14, 0x00, 0x00, 0x00, 0x00, 0x00, 0x0e, 0x00, 
0x18, 0x00, 0x14, 0x00, 0x10, 0x00, 0x0c, 0x00, 0x08, 0x00, 0x04, 0x00, 
0x0e, 0x00, 0x00, 0x00, 0x14, 0x00, 0x00, 0x00, 0x1c, 0x00, 0x00, 0x00, 
0x34, 0x02, 0x00, 0x00, 0x38, 0x02, 0x00, 0x00, 0x3c, 0x02, 0x00, 0x00, 
0x04, 0x00, 0x00, 0x00, 0x6d, 0x61, 0x69, 0x6e, 0x00, 0x00, 0x00, 0x00, 
0x07, 0x00, 0x00, 0x00, 0xd0, 0x01, 0x00, 0x00, 0x6c, 0x01, 0x00, 0x00, 
0x0c, 0x01, 0x00, 0x00, 0xac, 0x00, 0x00, 0x00, 0x78, 0x00, 0x00, 0x00, 
0x40, 0x00, 0x00, 0x00, 0x04, 0x00, 0x00, 0x00, 0xba, 0xfe, 0xff, 0xff, 
0x1c, 0x00, 0x00, 0x00, 0x00, 0x00, 0x00, 0x09, 0x1c, 0x00, 0x00, 0x00, 
0x20, 0x00, 0x00, 0x00, 0x05, 0x00, 0x00, 0x00, 0x00, 0x00, 0x06, 0x00, 
0x08, 0x00, 0x04, 0x00, 0x06, 0x00, 0x00, 0x00, 0x00, 0x00, 0x80, 0x3f, 
0x01, 0x00, 0x00, 0x00, 0x10, 0x00, 0x00, 0x00, 0x01, 0x00, 0x00, 0x00, 
0x0f, 0x00, 0x00, 0x00, 0x4e, 0xff, 0xff, 0xff, 0x14, 0x00, 0x00, 0x00, 
0x00, 0x00, 0x00, 0x08, 0x10, 0x00, 0x00, 0x00, 0x14, 0x00, 0x00, 0x00, 
0x04, 0x00, 0x00, 0x00, 0xb8, 0xf5, 0xff, 0xff, 0x01, 0x00, 0x00, 0x00, 
0x0f, 0x00, 0x00, 0x00, 0x03, 0x00, 0x00, 0x00, 0x0e, 0x00, 0x00, 0x00, 
0x05, 0x00, 0x00, 0x00, 0x02, 0x00, 0x00, 0x00, 0x82, 0xff, 0xff, 0xff, 
0x14, 0x00, 0x00, 0x00, 0x00, 0x00, 0x00, 0x1b, 0x10, 0x00, 0x00, 0x00, 
0x14, 0x00, 0x00, 0x00, 0x03, 0x00, 0x00, 0x00, 0xec, 0xf5, 0xff, 0xff, 
0x01, 0x00, 0x00, 0x00, 0x0e, 0x00, 0x00, 0x00, 0x02, 0x00, 0x00, 0x00, 
0x0d, 0x00, 0x00, 0x00, 0x06, 0x00, 0x00, 0x00, 0xf6, 0xfe, 0xff, 0xff, 
0x1c, 0x00, 0x00, 0x00, 0x00, 0x00, 0x00, 0x01, 0x28, 0x00, 0x00, 0x00, 
0x2c, 0x00, 0x00, 0x00, 0x0c, 0x00, 0x14, 0x00, 0x13, 0x00, 0x0c, 0x00, 
0x08, 0x00, 0x07, 0x00, 0x0c, 0x00, 0x00, 0x00, 0x00, 0x00, 0x00, 0x01, 
0x01, 0x00, 0x00, 0x00, 0x01, 0x00, 0x00, 0x00, 0x00, 0x00, 0x00, 0x01, 
0x01, 0x00, 0x00, 0x00, 0x0d, 0x00, 0x00, 0x00, 0x03, 0x00, 0x00, 0x00, 
0x0c, 0x00, 0x00, 0x00, 0x03, 0x00, 0x00, 0x00, 0x01, 0x00, 0x00, 0x00, 
0x00, 0x00, 0x0e, 0x00, 0x18, 0x00, 0x14, 0x00, 0x10, 0x00, 0x0c, 0x00, 
0x0b, 0x00, 0x04, 0x00, 0x0e, 0x00, 0x00, 0x00, 0x20, 0x00, 0x00, 0x00, 
0x00, 0x00, 0x00, 0x02, 0x28, 0x00, 0x00, 0x00, 0x2c, 0x00, 0x00, 0x00, 
0x02, 0x00, 0x00, 0x00, 0x0c, 0x00, 0x10, 0x00, 0x00, 0x00, 0x0c, 0x00, 
0x08, 0x00, 0x04, 0x00, 0x0c, 0x00, 0x00, 0x00, 0x01, 0x00, 0x00, 0x00, 
0x01, 0x00, 0x00, 0x00, 0x01, 0x00, 0x00, 0x00, 0x01, 0x00, 0x00, 0x00, 
0x0c, 0x00, 0x00, 0x00, 0x03, 0x00, 0x00, 0x00, 0x0b, 0x00, 0x00, 0x00, 
0x04, 0x00, 0x00, 0x00, 0x07, 0x00, 0x00, 0x00, 0x00, 0x00, 0x0e, 0x00, 
0x1a, 0x00, 0x14, 0x00, 0x10, 0x00, 0x0c, 0x00, 0x0b, 0x00, 0x04, 0x00, 
0x0e, 0x00, 0x00, 0x00, 0x24, 0x00, 0x00, 0x00, 0x00, 0x00, 0x00, 0x05, 
0x34, 0x00, 0x00, 0x00, 0x38, 0x00, 0x00, 0x00, 0x01, 0x00, 0x00, 0x00, 
0x00, 0x00, 0x0e, 0x00, 0x18, 0x00, 0x17, 0x00, 0x10, 0x00, 0x0c, 0x00, 
0x08, 0x00, 0x04, 0x00, 0x0e, 0x00, 0x00, 0x00, 0x02, 0x00, 0x00, 0x00, 
0x02, 0x00, 0x00, 0x00, 0x02, 0x00, 0x00, 0x00, 0x02, 0x00, 0x00, 0x00, 
0x00, 0x00, 0x00, 0x01, 0x01, 0x00, 0x00, 0x00, 0x0b, 0x00, 0x00, 0x00, 
0x01, 0x00, 0x00, 0x00, 0x0a, 0x00, 0x00, 0x00, 0x00, 0x00, 0x0e, 0x00, 
0x14, 0x00, 0x00, 0x00, 0x10, 0x00, 0x0c, 0x00, 0x0b, 0x00, 0x04, 0x00, 
0x0e, 0x00, 0x00, 0x00, 0x1c, 0x00, 0x00, 0x00, 0x00, 0x00, 0x00, 0x01, 
0x24, 0x00, 0x00, 0x00, 0x28, 0x00, 0x00, 0x00, 0x0c, 0x00, 0x10, 0x00, 
0x00, 0x00, 0x0c, 0x00, 0x08, 0x00, 0x07, 0x00, 0x0c, 0x00, 0x00, 0x00, 
0x00, 0x00, 0x00, 0x01, 0x01, 0x00, 0x00, 0x00, 0x01, 0x00, 0x00, 0x00, 
0x01, 0x00, 0x00, 0x00, 0x0a, 0x00, 0x00, 0x00, 0x03, 0x00, 0x00, 0x00, 
0x00, 0x00, 0x00, 0x00, 0x08, 0x00, 0x00, 0x00, 0x09, 0x00, 0x00, 0x00, 
0x01, 0x00, 0x00, 0x00, 0x10, 0x00, 0x00, 0x00, 0x01, 0x00, 0x00, 0x00, 
0x00, 0x00, 0x00, 0x00, 0x11, 0x00, 0x00, 0x00, 0x58, 0x08, 0x00, 0x00, 
0x6c, 0x07, 0x00, 0x00, 0x08, 0x07, 0x00, 0x00, 0x9c, 0x06, 0x00, 0x00, 
0x28, 0x06, 0x00, 0x00, 0xdc, 0x05, 0x00, 0x00, 0x6c, 0x05, 0x00, 0x00, 
0x18, 0x05, 0x00, 0x00, 0xbc, 0x04, 0x00, 0x00, 0x14, 0x04, 0x00, 0x00, 
0x48, 0x03, 0x00, 0x00, 0xd0, 0x02, 0x00, 0x00, 0x44, 0x02, 0x00, 0x00, 
0x4c, 0x01, 0x00, 0x00, 0xdc, 0x00, 0x00, 0x00, 0x60, 0x00, 0x00, 0x00, 
0x04, 0x00, 0x00, 0x00, 0x02, 0xf8, 0xff, 0xff, 0x00, 0x00, 0x00, 0x01, 
0x14, 0x00, 0x00, 0x00, 0x1c, 0x00, 0x00, 0x00, 0x1c, 0x00, 0x00, 0x00, 
0x11, 0x00, 0x00, 0x00, 0x34, 0x00, 0x00, 0x00, 0x02, 0x00, 0x00, 0x00, 
0xff, 0xff, 0xff, 0xff, 0x05, 0x00, 0x00, 0x00, 0xe4, 0xf7, 0xff, 0xff, 
0x1b, 0x00, 0x00, 0x00, 0x53, 0x74, 0x61, 0x74, 0x65, 0x66, 0x75, 0x6c, 
0x50, 0x61, 0x72, 0x74, 0x69, 0x74, 0x69, 0x6f, 0x6e, 0x65, 0x64, 0x43, 
0x61, 0x6c, 0x6c, 0x5f, 0x31, 0x3a, 0x30, 0x00, 0x02, 0x00, 0x00, 0x00, 
0x01, 0x00, 0x00, 0x00, 0x05, 0x00, 0x00, 0x00, 0x5a, 0xf8, 0xff, 0xff, 
0x00, 0x00, 0x00, 0x01, 0x14, 0x00, 0x00, 0x00, 0x1c, 0x00, 0x00, 0x00, 
0x1c, 0x00, 0x00, 0x00, 0x10, 0x00, 0x00, 0x00, 0x54, 0x00, 0x00, 0x00, 
0x02, 0x00, 0x00, 0x00, 0xff, 0xff, 0xff, 0xff, 0x05, 0x00, 0x00, 0x00, 
0x3c, 0xf8, 0xff, 0xff, 0x38, 0x00, 0x00, 0x00, 0x73, 0x65, 0x71, 0x75, 
0x65, 0x6e, 0x74, 0x69, 0x61, 0x6c, 0x5f, 0x31, 0x2f, 0x64, 0x65, 0x6e, 
0x73, 0x65, 0x5f, 0x31, 0x2f, 0x4d, 0x61, 0x74, 0x4d, 0x75, 0x6c, 0x3b, 
0x73, 0x65, 0x71, 0x75, 0x65, 0x6e, 0x74, 0x69, 0x61, 0x6c, 0x5f, 0x31, 
0x2f, 0x64, 0x65, 0x6e, 0x73, 0x65, 0x5f, 0x31, 0x2f, 0x42, 0x69, 0x61, 
0x73, 0x41, 0x64, 0x64, 0x00, 0x00, 0x00, 0x00, 0x02, 0x00, 0x00, 0x00, 
0x01, 0x00, 0x00, 0x00, 0x05, 0x00, 0x00, 0x00, 0xd2, 0xf8, 0xff, 0xff, 
0x00, 0x00, 0x00, 0x01, 0x14, 0x00, 0x00, 0x00, 0x1c, 0x00, 0x00, 0x00, 
0x1c, 0x00, 0x00, 0x00, 0x0f, 0x00, 0x00, 0x00, 0x48, 0x00, 0x00, 0x00, 
0x02, 0x00, 0x00, 0x00, 0xff, 0xff, 0xff, 0xff, 0x20, 0x00, 0x00, 0x00, 
0xb4, 0xf8, 0xff, 0xff, 0x2c, 0x00, 0x00, 0x00, 0x73, 0x65, 0x71, 0x75, 
0x65, 0x6e, 0x74, 0x69, 0x61, 0x6c, 0x5f, 0x31, 0x2f, 0x67, 0x6c, 0x6f, 
0x62, 0x61, 0x6c, 0x5f, 0x61, 0x76, 0x65, 0x72, 0x61, 0x67, 0x65, 0x5f, 
0x70, 0x6f, 0x6f, 0x6c, 0x69, 0x6e, 0x67, 0x32, 0x64, 0x5f, 0x31, 0x2f, 
0x4d, 0x65, 0x61, 0x6e, 0x00, 0x00, 0x00, 0x00, 0x02, 0x00, 0x00, 0x00, 
0x01, 0x00, 0x00, 0x00, 0x20, 0x00, 0x00, 0x00, 0x3e, 0xf9, 0xff, 0xff, 
0x00, 0x00, 0x00, 0x01, 0x14, 0x00, 0x00, 0x00, 0x24, 0x00, 0x00, 0x00, 
0x24, 0x00, 0x00, 0x00, 0x0e, 0x00, 0x00, 0x00, 0xc8, 0x00, 0x00, 0x00, 
0x04, 0x00, 0x00, 0x00, 0xff, 0xff, 0xff, 0xff, 0x10, 0x00, 0x00, 0x00, 
0x06, 0x00, 0x00, 0x00, 0x20, 0x00, 0x00, 0x00, 0x28, 0xf9, 0xff, 0xff, 
0xa6, 0x00, 0x00, 0x00, 0x73, 0x65, 0x71, 0x75, 0x65, 0x6e, 0x74, 0x69, 
0x61, 0x6c, 0x5f, 0x31, 0x2f, 0x73, 0x65, 0x70, 0x61, 0x72, 0x61, 0x62, 
0x6c, 0x65, 0x5f, 0x63, 0x6f, 0x6e, 0x76, 0x32, 0x64, 0x5f, 0x31, 0x2f, 
0x52, 0x65, 0x6c, 0x75, 0x3b, 0x73, 0x65, 0x71, 0x75, 0x65, 0x6e, 0x74, 
0x69, 0x61, 0x6c, 0x5f, 0x31, 0x2f, 0x73, 0x65, 0x70, 0x61, 0x72, 0x61, 
0x62, 0x6c, 0x65, 0x5f, 0x63, 0x6f, 0x6e, 0x76, 0x32, 0x64, 0x5f, 0x31, 
0x2f, 0x42, 0x69, 0x61, 0x73, 0x41, 0x64, 0x64, 0x3b, 0x73, 0x65, 0x71, 
0x75, 0x65, 0x6e, 0x74, 0x69, 0x61, 0x6c, 0x5f, 0x31, 0x2f, 0x73, 0x65, 
0x70, 0x61, 0x72, 0x61, 0x62, 0x6c, 0x65, 0x5f, 0x63, 0x6f, 0x6e, 0x76, 
0x32, 0x64, 0x5f, 0x31, 0x2f, 0x73, 0x65, 0x70, 0x61, 0x72, 0x61, 0x62, 
0x6c, 0x65, 0x5f, 0x63, 0x6f, 0x6e, 0x76, 0x32, 0x64, 0x3b, 0x73, 0x65, 
0x71, 0x75, 0x65, 0x6e, 0x74, 0x69, 0x61, 0x6c, 0x5f, 0x31, 0x2f, 0x73, 
0x65, 0x70, 0x61, 0x72, 0x61, 0x62, 0x6c, 0x65, 0x5f, 0x63, 0x6f, 0x6e, 
0x76, 0x32, 0x64, 0x5f, 0x31, 0x2f, 0x53, 0x71, 0x75, 0x65, 0x65, 0x7a, 
0x65, 0x31, 0x00, 0x00, 0x04, 0x00, 0x00, 0x00, 0x01, 0x00, 0x00, 0x00, 
0x10, 0x00, 0x00, 0x00, 0x06, 0x00, 0x00, 0x00, 0x20, 0x00, 0x00, 0x00, 
0x32, 0xfa, 0xff, 0xff, 0x00, 0x00, 0x00, 0x01, 0x14, 0x00, 0x00, 0x00, 
0x24, 0x00, 0x00, 0x00, 0x24, 0x00, 0x00, 0x00, 0x0d, 0x00, 0x00, 0x00, 
0x5c, 0x00, 0x00, 0x00, 0x04, 0x00, 0x00, 0x00, 0xff, 0xff, 0xff, 0xff, 
0x10, 0x00, 0x00, 0x00, 0x06, 0x00, 0x00, 0x00, 0x10, 0x00, 0x00, 0x00, 
0x1c, 0xfa, 0xff, 0xff, 0x3b, 0x00, 0x00, 0x00, 0x73, 0x65, 0x71, 0x75, 
0x65, 0x6e, 0x74, 0x69, 0x61, 0x6c, 0x5f, 0x31, 0x2f, 0x73, 0x65, 0x70, 
0x61, 0x72, 0x61, 0x62, 0x6c, 0x65, 0x5f, 0x63, 0x6f, 0x6e, 0x76, 0x32, 
0x64, 0x5f, 0x31, 0x2f, 0x73, 0x65, 0x70, 0x61, 0x72, 0x61, 0x62, 0x6c, 
0x65, 0x5f, 0x63, 0x6f, 0x6e, 0x76, 0x32, 0x64, 0x2f, 0x64, 0x65, 0x70, 
0x74, 0x68, 0x77, 0x69, 0x73, 0x65, 0x31, 0x00, 0x04, 0x00, 0x00, 0x00, 
0x01, 0x00, 0x00, 0x00, 0x10, 0x00, 0x00, 0x00, 0x06, 0x00, 0x00, 0x00, 
0x10, 0x00, 0x00, 0x00, 0xba, 0xfa, 0xff, 0xff, 0x00, 0x00, 0x00, 0x01, 
0x14, 0x00, 0x00, 0x00, 0x24, 0x00, 0x00, 0x00, 0x24, 0x00, 0x00, 0x00, 
0x0c, 0x00, 0x00, 0x00, 0x48, 0x00, 0x00, 0x00, 0x04, 0x00, 0x00, 0x00, 
0xff, 0xff, 0xff, 0xff, 0x10, 0x00, 0x00, 0x00, 0x06, 0x00, 0x00, 0x00, 
0x10, 0x00, 0x00, 0x00, 0xa4, 0xfa, 0xff, 0xff, 0x26, 0x00, 0x00, 0x00, 
0x73, 0x65, 0x71, 0x75, 0x65, 0x6e, 0x74, 0x69, 0x61, 0x6c, 0x5f, 0x31, 
0x2f, 0x6d, 0x61, 0x78, 0x5f, 0x70, 0x6f, 0x6f, 0x6c, 0x69, 0x6e, 0x67, 
0x32, 0x64, 0x5f, 0x31, 0x2f, 0x4d, 0x61, 0x78, 0x50, 0x6f, 0x6f, 0x6c, 
0x32, 0x64, 0x00, 0x00, 0x04, 0x00, 0x00, 0x00, 0x01, 0x00, 0x00, 0x00, 
0x10, 0x00, 0x00, 0x00, 0x06, 0x00, 0x00, 0x00, 0x10, 0x00, 0x00, 0x00, 
0x2e, 0xfb, 0xff, 0xff, 0x00, 0x00, 0x00, 0x01, 0x14, 0x00, 0x00, 0x00, 
0x24, 0x00, 0x00, 0x00, 0x24, 0x00, 0x00, 0x00, 0x0b, 0x00, 0x00, 0x00, 
0x9c, 0x00, 0x00, 0x00, 0x04, 0x00, 0x00, 0x00, 0xff, 0xff, 0xff, 0xff, 
0x20, 0x00, 0x00, 0x00, 0x0d, 0x00, 0x00, 0x00, 0x10, 0x00, 0x00, 0x00, 
0x18, 0xfb, 0xff, 0xff, 0x79, 0x00, 0x00, 0x00, 0x73, 0x65, 0x71, 0x75, 
0x65, 0x6e, 0x74, 0x69, 0x61, 0x6c, 0x5f, 0x31, 0x2f, 0x63, 0x6f, 0x6e, 
0x76, 0x32, 0x64, 0x5f, 0x31, 0x2f, 0x52, 0x65, 0x6c, 0x75, 0x3b, 0x73, 
0x65, 0x71, 0x75, 0x65, 0x6e, 0x74, 0x69, 0x61, 0x6c, 0x5f, 0x31, 0x2f, 
0x63, 0x6f, 0x6e, 0x76, 0x32, 0x64, 0x5f, 0x31, 0x2f, 0x42, 0x69, 0x61, 
0x73, 0x41, 0x64, 0x64, 0x3b, 0x73, 0x65, 0x71, 0x75, 0x65, 0x6e, 0x74, 
0x69, 0x61, 0x6c, 0x5f, 0x31, 0x2f, 0x63, 0x6f, 0x6e, 0x76, 0x32, 0x64, 
0x5f, 0x31, 0x2f, 0x63, 0x6f, 0x6e, 0x76, 0x6f, 0x6c, 0x75, 0x74, 0x69, 
0x6f, 0x6e, 0x3b, 0x73, 0x65, 0x71, 0x75, 0x65, 0x6e, 0x74, 0x69, 0x61, 
0x6c, 0x5f, 0x31, 0x2f, 0x63, 0x6f, 0x6e, 0x76, 0x32, 0x64, 0x5f, 0x31, 
0x2f, 0x53, 0x71, 0x75, 0x65, 0x65, 0x7a, 0x65, 0x31, 0x00, 0x00, 0x00, 
0x04, 0x00, 0x00, 0x00, 0x01, 0x00, 0x00, 0x00, 0x20, 0x00, 0x00, 0x00, 
0x0d, 0x00, 0x00, 0x00, 0x10, 0x00, 0x00, 0x00, 0xde, 0xfc, 0xff, 0xff, 
0x00, 0x00, 0x00, 0x01, 0x10, 0x00, 0x00, 0x00, 0x10, 0x00, 0x00, 0x00, 
0x0a, 0x00, 0x00, 0x00, 0x88, 0x00, 0x00, 0x00, 0xc8, 0xfb, 0xff, 0xff, 
0x78, 0x00, 0x00, 0x00, 0x73, 0x65, 0x71, 0x75, 0x65, 0x6e, 0x74, 0x69, 
0x61, 0x6c, 0x5f, 0x31, 0x2f, 0x63, 0x6f, 0x6e, 0x76, 0x32, 0x64, 0x5f, 
0x31, 0x2f, 0x52, 0x65, 0x6c, 0x75, 0x3b, 0x73, 0x65, 0x71, 0x75, 0x65, 
0x6e, 0x74, 0x69, 0x61, 0x6c, 0x5f, 0x31, 0x2f, 0x63, 0x6f, 0x6e, 0x76, 
0x32, 0x64, 0x5f, 0x31, 0x2f, 0x42, 0x69, 0x61, 0x73, 0x41, 0x64, 0x64, 
0x3b, 0x73, 0x65, 0x71, 0x75, 0x65, 0x6e, 0x74, 0x69, 0x61, 0x6c, 0x5f, 
0x31, 0x2f, 0x63, 0x6f, 0x6e, 0x76, 0x32, 0x64, 0x5f, 0x31, 0x2f, 0x63, 
0x6f, 0x6e, 0x76, 0x6f, 0x6c, 0x75, 0x74, 0x69, 0x6f, 0x6e, 0x3b, 0x73, 
0x65, 0x71, 0x75, 0x65, 0x6e, 0x74, 0x69, 0x61, 0x6c, 0x5f, 0x31, 0x2f, 
0x63, 0x6f, 0x6e, 0x76, 0x32, 0x64, 0x5f, 0x31, 0x2f, 0x53, 0x71, 0x75, 
0x65, 0x65, 0x7a, 0x65, 0x00, 0x00, 0x00, 0x00, 0x01, 0x00, 0x00, 0x00, 
0x10, 0x00, 0x00, 0x00, 0x82, 0xfd, 0xff, 0xff, 0x00, 0x00, 0x00, 0x01, 
0x10, 0x00, 0x00, 0x00, 0x10, 0x00, 0x00, 0x00, 0x09, 0x00, 0x00, 0x00, 
0x30, 0x00, 0x00, 0x00, 0x6c, 0xfc, 0xff, 0xff, 0x21, 0x00, 0x00, 0x00, 
0x73, 0x65, 0x71, 0x75, 0x65, 0x6e, 0x74, 0x69, 0x61, 0x6c, 0x5f, 0x31, 
0x2f, 0x63, 0x6f, 0x6e, 0x76, 0x32, 0x64, 0x5f, 0x31, 0x2f, 0x63, 0x6f, 
0x6e, 0x76, 0x6f, 0x6c, 0x75, 0x74, 0x69, 0x6f, 0x6e, 0x00, 0x00, 0x00, 
0x04, 0x00, 0x00, 0x00, 0x10, 0x00, 0x00, 0x00, 0x03, 0x00, 0x00, 0x00, 
0x03, 0x00, 0x00, 0x00, 0x01, 0x00, 0x00, 0x00, 0xda, 0xfd, 0xff, 0xff, 
0x00, 0x00, 0x00, 0x01, 0x10, 0x00, 0x00, 0x00, 0x10, 0x00, 0x00, 0x00, 
0x08, 0x00, 0x00, 0x00, 0x1c, 0x00, 0x00, 0x00, 0xc4, 0xfc, 0xff, 0xff, 
0x0e, 0x00, 0x00, 0x00, 0x61, 0x72, 0x69, 0x74, 0x68, 0x2e, 0x63, 0x6f, 
0x6e, 0x73, 0x74, 0x61, 0x6e, 0x74, 0x00, 0x00, 0x01, 0x00, 0x00, 0x00, 
0x10, 0x00, 0x00, 0x00, 0x00, 0x00, 0x16, 0x00, 0x1c, 0x00, 0x18, 0x00, 
0x17, 0x00, 0x10, 0x00, 0x0c, 0x00, 0x08, 0x00, 0x00, 0x00, 0x00, 0x00, 
0x00, 0x00, 0x07, 0x00, 0x16, 0x00, 0x00, 0x00, 0x00, 0x00, 0x00, 0x01, 
0x14, 0x00, 0x00, 0x00, 0x14, 0x00, 0x00, 0x00, 0x07, 0x00, 0x00, 0x00, 
0x00, 0x00, 0x00, 0x02, 0x4c, 0x00, 0x00, 0x00, 0x18, 0xfd, 0xff, 0xff, 
0x3e, 0x00, 0x00, 0x00, 0x73, 0x65, 0x71, 0x75, 0x65, 0x6e, 0x74, 0x69, 
0x61, 0x6c, 0x5f, 0x31, 0x2f, 0x67, 0x6c, 0x6f, 0x62, 0x61, 0x6c, 0x5f, 
0x61, 0x76, 0x65, 0x72, 0x61, 0x67, 0x65, 0x5f, 0x70, 0x6f, 0x6f, 0x6c, 
0x69, 0x6e, 0x67, 0x32, 0x64, 0x5f, 0x31, 0x2f, 0x4d, 0x65, 0x61, 0x6e, 
0x2f, 0x72, 0x65, 0x64, 0x75, 0x63, 0x74, 0x69, 0x6f, 0x6e, 0x5f, 0x69, 
0x6e, 0x64, 0x69, 0x63, 0x65, 0x73, 0x00, 0x00, 0x01, 0x00, 0x00, 0x00, 
0x02, 0x00, 0x00, 0x00, 0x96, 0xfe, 0xff, 0xff, 0x00, 0x00, 0x00, 0x01, 
0x10, 0x00, 0x00, 0x00, 0x10, 0x00, 0x00, 0x00, 0x06, 0x00, 0x00, 0x00, 
0x28, 0x00, 0x00, 0x00, 0x80, 0xfd, 0xff, 0xff, 0x1b, 0x00, 0x00, 0x00, 
0x73, 0x65, 0x71, 0x75, 0x65, 0x6e, 0x74, 0x69, 0x61, 0x6c, 0x5f, 0x31, 
0x2f, 0x64, 0x65, 0x6e, 0x73, 0x65, 0x5f, 0x31, 0x2f, 0x4d, 0x61, 0x74, 
0x4d, 0x75, 0x6c, 0x00, 0x02, 0x00, 0x00, 0x00, 0x05, 0x00, 0x00, 0x00, 
0x20, 0x00, 0x00, 0x00, 0xde, 0xfe, 0xff, 0xff, 0x00, 0x00, 0x00, 0x01, 
0x10, 0x00, 0x00, 0x00, 0x10, 0x00, 0x00, 0x00, 0x05, 0x00, 0x00, 0x00, 
0x48, 0x00, 0x00, 0x00, 0xc8, 0xfd, 0xff, 0xff, 0x3a, 0x00, 0x00, 0x00, 
0x73, 0x65, 0x71, 0x75, 0x65, 0x6e, 0x74, 0x69, 0x61, 0x6c, 0x5f, 0x31, 
0x2f, 0x73, 0x65, 0x70, 0x61, 0x72, 0x61, 0x62, 0x6c, 0x65, 0x5f, 0x63, 
0x6f, 0x6e, 0x76, 0x32, 0x64, 0x5f, 0x31, 0x2f, 0x73, 0x65, 0x70, 0x61, 
0x72, 0x61, 0x62, 0x6c, 0x65, 0x5f, 0x63, 0x6f, 0x6e, 0x76, 0x32, 0x64, 
0x2f, 0x64, 0x65, 0x70, 0x74, 0x68, 0x77, 0x69, 0x73, 0x65, 0x00, 0x00, 
0x04, 0x00, 0x00, 0x00, 0x01, 0x00, 0x00, 0x00, 0x03, 0x00, 0x00, 0x00, 
0x03, 0x00, 0x00, 0x00, 0x10, 0x00, 0x00, 0x00, 0x4e, 0xff, 0xff, 0xff, 
0x00, 0x00, 0x00, 0x01, 0x10, 0x00, 0x00, 0x00, 0x10, 0x00, 0x00, 0x00, 
0x04, 0x00, 0x00, 0x00, 0x40, 0x00, 0x00, 0x00, 0x38, 0xfe, 0xff, 0xff, 
0x30, 0x00, 0x00, 0x00, 0x73, 0x65, 0x71, 0x75, 0x65, 0x6e, 0x74, 0x69, 
0x61, 0x6c, 0x5f, 0x31, 0x2f, 0x73, 0x65, 0x70, 0x61, 0x72, 0x61, 0x62, 
0x6c, 0x65, 0x5f, 0x63, 0x6f, 0x6e, 0x76, 0x32, 0x64, 0x5f, 0x31, 0x2f, 
0x73, 0x65, 0x70, 0x61, 0x72, 0x61, 0x62, 0x6c, 0x65, 0x5f, 0x63, 0x6f, 
0x6e, 0x76, 0x32, 0x64, 0x00, 0x00, 0x00, 0x00, 0x04, 0x00, 0x00, 0x00, 
0x20, 0x00, 0x00, 0x00, 0x01, 0x00, 0x00, 0x00, 0x01, 0x00, 0x00, 0x00, 
0x10, 0x00, 0x00, 0x00, 0xb6, 0xff, 0xff, 0xff, 0x00, 0x00, 0x00, 0x01, 
0x10, 0x00, 0x00, 0x00, 0x10, 0x00, 0x00, 0x00, 0x03, 0x00, 0x00, 0x00, 
0x2c, 0x00, 0x00, 0x00, 0xa0, 0xfe, 0xff, 0xff, 0x1c, 0x00, 0x00, 0x00, 
0x73, 0x65, 0x71, 0x75, 0x65, 0x6e, 0x74, 0x69, 0x61, 0x6c, 0x5f, 0x31, 
0x2f, 0x64, 0x65, 0x6e, 0x73, 0x65, 0x5f, 0x31, 0x2f, 0x42, 0x69, 0x61, 
0x73, 0x41, 0x64, 0x64, 0x00, 0x00, 0x00, 0x00, 0x01, 0x00, 0x00, 0x00, 
0x05, 0x00, 0x00, 0x00, 0x00, 0x00, 0x16, 0x00, 0x18, 0x00, 0x14, 0x00, 
0x00, 0x00, 0x10, 0x00, 0x0c, 0x00, 0x08, 0x00, 0x00, 0x00, 0x00, 0x00, 
0x00, 0x00, 0x07, 0x00, 0x16, 0x00, 0x00, 0x00, 0x00, 0x00, 0x00, 0x01, 
0x10, 0x00, 0x00, 0x00, 0x10, 0x00, 0x00, 0x00, 0x02, 0x00, 0x00, 0x00, 
0xb4, 0x00, 0x00, 0x00, 0x00, 0xff, 0xff, 0xff, 0xa5, 0x00, 0x00, 0x00, 
0x73, 0x65, 0x71, 0x75, 0x65, 0x6e, 0x74, 0x69, 0x61, 0x6c, 0x5f, 0x31, 
0x2f, 0x73, 0x65, 0x70, 0x61, 0x72, 0x61, 0x62, 0x6c, 0x65, 0x5f, 0x63, 
0x6f, 0x6e, 0x76, 0x32, 0x64, 0x5f, 0x31, 0x2f, 0x52, 0x65, 0x6c, 0x75, 
0x3b, 0x73, 0x65, 0x71, 0x75, 0x65, 0x6e, 0x74, 0x69, 0x61, 0x6c, 0x5f, 
0x31, 0x2f, 0x73, 0x65, 0x70, 0x61, 0x72, 0x61, 0x62, 0x6c, 0x65, 0x5f, 
0x63, 0x6f, 0x6e, 0x76, 0x32, 0x64, 0x5f, 0x31, 0x2f, 0x42, 0x69, 0x61, 
0x73, 0x41, 0x64, 0x64, 0x3b, 0x73, 0x65, 0x71, 0x75, 0x65, 0x6e, 0x74, 
0x69, 0x61, 0x6c, 0x5f, 0x31, 0x2f, 0x73, 0x65, 0x70, 0x61, 0x72, 0x61, 
0x62, 0x6c, 0x65, 0x5f, 0x63, 0x6f, 0x6e, 0x76, 0x32, 0x64, 0x5f, 0x31, 
0x2f, 0x73, 0x65, 0x70, 0x61, 0x72, 0x61, 0x62, 0x6c, 0x65, 0x5f, 0x63, 
0x6f, 0x6e, 0x76, 0x32, 0x64, 0x3b, 0x73, 0x65, 0x71, 0x75, 0x65, 0x6e, 
0x74, 0x69, 0x61, 0x6c, 0x5f, 0x31, 0x2f, 0x73, 0x65, 0x70, 0x61, 0x72, 
0x61, 0x62, 0x6c, 0x65, 0x5f, 0x63, 0x6f, 0x6e, 0x76, 0x32, 0x64, 0x5f, 
0x31, 0x2f, 0x53, 0x71, 0x75, 0x65, 0x65, 0x7a, 0x65, 0x00, 0x00, 0x00, 
0x01, 0x00, 0x00, 0x00, 0x20, 0x00, 0x00, 0x00, 0x00, 0x00, 0x16, 0x00, 
0x1c, 0x00, 0x18, 0x00, 0x00, 0x00, 0x14, 0x00, 0x10, 0x00, 0x0c, 0x00, 
0x00, 0x00, 0x00, 0x00, 0x08, 0x00, 0x07, 0x00, 0x16, 0x00, 0x00, 0x00, 
0x00, 0x00, 0x00, 0x01, 0x14, 0x00, 0x00, 0x00, 0x28, 0x00, 0x00, 0x00, 
0x28, 0x00, 0x00, 0x00, 0x01, 0x00, 0x00, 0x00, 0x44, 0x00, 0x00, 0x00, 
0x04, 0x00, 0x00, 0x00, 0xff, 0xff, 0xff, 0xff, 0x20, 0x00, 0x00, 0x00, 
0x0d, 0x00, 0x00, 0x00, 0x01, 0x00, 0x00, 0x00, 0x04, 0x00, 0x04, 0x00, 
0x04, 0x00, 0x00, 0x00, 0x1e, 0x00, 0x00, 0x00, 0x73, 0x65, 0x72, 0x76, 
0x69, 0x6e, 0x67, 0x5f, 0x64, 0x65, 0x66, 0x61, 0x75, 0x6c, 0x74, 0x5f, 
0x6b, 0x65, 0x72, 0x61, 0x73, 0x5f, 0x74, 0x65, 0x6e, 0x73, 0x6f, 0x72, 
0x3a, 0x30, 0x00, 0x00, 0x04, 0x00, 0x00, 0x00, 0x01, 0x00, 0x00, 0x00, 
0x20, 0x00, 0x00, 0x00, 0x0d, 0x00, 0x00, 0x00, 0x01, 0x00, 0x00, 0x00, 
0x06, 0x00, 0x00, 0x00, 0x60, 0x00, 0x00, 0x00, 0x44, 0x00, 0x00, 0x00, 
0x34, 0x00, 0x00, 0x00, 0x24, 0x00, 0x00, 0x00, 0x14, 0x00, 0x00, 0x00, 
0x04, 0x00, 0x00, 0x00, 0xc4, 0xff, 0xff, 0xff, 0x19, 0x00, 0x00, 0x00, 
0x00, 0x00, 0x00, 0x19, 0xd0, 0xff, 0xff, 0xff, 0x09, 0x00, 0x00, 0x00, 
0x00, 0x00, 0x00, 0x09, 0xdc, 0xff, 0xff, 0xff, 0x28, 0x00, 0x00, 0x00, 
0x00, 0x00, 0x00, 0x28, 0xe8, 0xff, 0xff, 0xff, 0x04, 0x00, 0x00, 0x00, 
0x00, 0x00, 0x00, 0x04, 0xf4, 0xff, 0xff, 0xff, 0x11, 0x00, 0x00, 0x00, 
0x00, 0x00, 0x00, 0x11, 0x0c, 0x00, 0x0c, 0x00, 0x0b, 0x00, 0x00, 0x00, 
0x00, 0x00, 0x04, 0x00, 0x0c, 0x00, 0x00, 0x00, 0x03, 0x00, 0x00, 0x00, 
0x00, 0x00, 0x00, 0x03, 
};
const int speaker_model_tflite_len = 7768;